effed2f6f51100f0
1d1108e8e11f27fb
fc05080c09faeb15
f9fd0805fe0717e3
e9cefef106f0c30d
f1fd06ef2ef81bea
f42d05ecf4c4ebca
2ef012f8f1f9faed
09e4d9f213fa17f5
f909160831f638fd
0c081bd8fc230516
68180d12e9f3ed06
01d3d5f4d90ef503
f9f1010de4f61d0d
d31c0dd801e3f6e8
fd150bf4e1e4d2ee
082b1bfa24fdf0eb
11fae90918eb0218
13e7f6161dcbea01
aef3e0ff14f3ff03
ebfe1d0416fc0104
2c0ef4101a17e4e3
fdf50a1c06180a07
fdf0e8f600f0edee
ff12f1ff06f3ee0d
04fbfede3802f2ec
d0ea17f3ea1afb08
fb1018fa0c15d4ec
07c3e902d601eff6
f1f5f021d8d70317
d6e4eae9dfcced21
2dea050f0809e5f3
0a06e5f81201e212
fcf11622e7edf617
0b1d000111001c08
4302f3f5d90ffa04
04df16ebf70016ea
13e6ecd719fa2b03
15fe03f7edfcfcd1
310bfc010fe41ef3
ed1b1b0f0f052df6
02dc0f1be41819ff
f11ff1151c0feecd
f70213f10df2e9da
f51a1d000603e9f3
0de6f01415102519
f8e1f800f61df7e4
0ef8f3f7e8031402
f8d3fcf82a0adff1
f3fbee1f3e09fc19
fe1115f8fee3fc17
0eff0dfdf811f01f
050dd7f8db1b130e
f4e60afdf0001e00
d310090e01e2f0fc
8e01e8f9d5f71508
ecd70ef1130ef8fe
000afac83128e210
11fc1a140bededdc
d6f8060ff20f0527
0500f6ed04f3d1fb
09fef705030df0f7
0b04f7fcedfa07ed
ecec16ebec12fa22
06ed010604f9dff2
1813ebfe28032fe0
f41307f9e8f5f3be
e90ef7ec000aef11
031417f0f70c2106
2f24f00c1df016e6
e2290cefe9db0acc
4003e6f50514d9e3
f12519f7ea191df6
1ff7ec02012c07ec
eaf216202016f413
d3e8f3fc0e07fe0b
fae3f7022d1720fa
e9eef3090c1c2afc
f81bebea0df9fdc8
15e9f8080aefeeec
f403f8f2e60edbfc
1c0ff7d9cadfe50b
08db07eafa08f90c
1bfcfffd05130dea
fcecdcecda01e2fb
1f0515ee111210f1
1216fc0201f1ff1e
cff118fadcfdf8f6
e705f6e62a072ae5
27e8fedeec1dd413
080eef140cc901e7
1bf9fefa020afde1
f802f0092400c8fd
f8de05d91e031cfa
ee18080613d7020a
d111f90ef3eb10e9
0408f204191319ec
e8f2eb19d521dfed
1a14f21ef51111f1
2cf209170aeef1fe
fe2611f802fff406
0b09fe0f1728fb05
eaf4ef1203fd0b33
b2f5110becf917eb
fe19efeffcffe0f8
ff1b110918ed12f4
fed60fed09dc1bf3
240d1005d5060df2
f0272fe9f70b19ee
1ee5e917e0edfdf5
ead91df6fa0af200
d4000502f0f0e004
f5e7faf11705e3f5
11d50014e1010cfe
f8da1a0ce60ff71e
24f6f911f2f4060d
f8dc0cfcedfe06e8
fc06fccc241dcf0b
19ce0ff51608ecd0
0308e802e7fceeed
02f712022a0023ee
0300fd0ef40ffaf7
2a1bf10305fce3dd
f5eaf11a0ae91eea
e911edf7f20df8f4
ea160221dd080edd
e8f6082d08eafbea
cfeadc07140e0007
f30ffff4f2fb19f1
05fefb14eaf240f4
ff07ef1011d21131
eef9f60de104fbe4
0808d5082209f4f7
f606f5e206f51ff8
d2e80f090fde01cf
0f070cf4ff06f6ed
0ad9e9ffdf0ac605
191b06dd13023ff4
cd3519ddf60fe1d2
defb03f4ba05da0f
0804ce1201edb608
11130ec9d9eef426
f1d50af5e4ec01f6
1c0c2a05100de6ee
08f71dfb0b1d18ee
f30606f0d733fe06
e5ed1121f107faf9
b60805222bf015dd
f908e4000bfc1702
f30105f00b1beefd
fde40805fb2ded0c
34e8f3f50c0b1307
07c5e0fcf1f8bc0b
0efd03f10ddc4b0e
f40b0ad5d0d710e1
1ff4f90feb06de07
00e8d4f4e9f50411
1508131908d826f7
d72ff2060cdcf90d
a7f1ea03d303f1fb
f7ce0304d701f8fb
07fd072a13efe8ed
d43407fb05edf6ea
e8edf7fee107f914
f30dec073517fdeb
1fe903051407e1fa
f7e4f827f2dee623
f2fb040908f4f9e7
ef0dfe0120ef01f3
fdfff7fbf822c800
fdf4002102d7100c
4302fa19fbe42400
ff141ef70801fc03
0af8f1081c02de18
09d3030e0318f10c
c6fd061121e62701
f705ff1323fde3f8
fdee0ef6f3e8ff1e
1608f01f1112fbd2
d50dfffaf7151d1c
fceb0f0eecfb1905
24fffac3d504e100
f8fdf31b0600e6c7
00ed13fe2bef0311
f4e714ebfd1609e4
effde8fb20e4fef4
36d60efa14f8e30f
550af6f814edf21b
12e4eefe11f6f410
01eaebfceaf02c23
17e2f8e7fd071cee
210405e7fbeffbe1
fff008fe1118cd05
15200deddc1d14f0
d810f6120d01fbe4
2debed190af1f32d
ec071bf51ffc1007
151ae9f6c2f814f9
e3021806042ae4cc
58f0ee0eee13f1e6
f4fb0ef6df1b31f1
16ddedfd0c0abf03
1b15f800fe0ef607
23ee030734ea0418
f3fe1302f019ecfe
2211f6d6f92112ff
171dec10f21afae4
e2ef0d07e40c00f3
f5ff150ef4fe110f
2a1cf6d60df810f8
27f9fbef06f105fe
250211f330eeff01
0e2114061303f60d
161706091aedd1e6
28e9ea20ffdeede2
cef5fef8fd0ae803
091b0bed35131cf5
edeaf1ddf709eef1
e3fdfff519d70511
e80bf607ec0b11f2
101d1ff823051b0c
f3ed07ff1c051d10
e202ef3106100bce
37efe90f2ee82f17
00060b02e503f50c
ea15ebded0f717e4
110cf70117e6ecdf
c8f41210faf41004
f5ffe307f8f0eeec
f7ecfeef05fce104
06e8052210e2e831
f7ebe8210cfe19e9
eeeb0805fdf1d612
111604171101cd08
fbe7f6f00f1914e6
cb15ff02da08fe1a
f73e1510010c2908
20e1ec09c520cff1
01df020924e7f8f5
fef6f502e7051129
f8ecfbfde006c5ff
eae2fdfc10133204
f9f812e507fc0505
04f9f9110313eb19
f32ceef01b00f60d
f7f8efdc0c05afec
f70bff2c2aedfcf5
ec06e70712060ef6
0be7eef5f80afbe8
02e0eecf1517baf7
1cd5fa1f0ecf07ee
da00f60b2c0a2df5
fc3b21f7090a2fea
e807092bed2cb9dc
0114ef0713dfffcd
53f2f714eef515dc
f41510ec16f604ed
03faeeca29f900d5
11e21114fd0ee414
d5eaeb0de9e3f21c
f61af6f5fbfd000f
f9f9fc312a0b1916
e91e10fd00d0f2f4
f2f6fe03e819e5fc
e91cf20b0015df10
fd0102cf22f300ef
08e00605fde506b2
26eaf1180713f621
12def5f81affb7f8
0b0801040bdc0222
fbf9eae3f4f312d5
040b17e8d6f8cbeb
f61e02eef705e706
14f7ffda2b330af5
22f209fdfaf711d9
dd00ed0a1ffef9d8
f1040eecfe0710eb
eeeae5ea19fd1cf3
36d4190cf5f6fa1a
5ffcfa10ff021bec
0317fb02d91fd9e7
0010f9ff030e3807
15e1f8f1da0005c3
d7eeed0000fcf300
07e6d3001e04cd06
f8f2efe71df309fb
e1f3f9d9f71004ee
b7f7fe0b12070e08
ffc5d7f9080aba0f
ee1015ff06fc0303
c40703def30be9fa
d2ff0609dbfeec0d
fe05f607010e310e
e91303d5df16e21d
ebf0fc1b1e14df3a
daf4f01c3de522f0
eaf523eb09eb1af3
f8faecec19e1e6f1
f3f4011014ed1107
e1f6f01a0907f00c
f2e3f0f704fccb01
04e909f405db03e4
ef021321fdd5ff13
fbf00417dce616de
f21703ee07fc05ff
0a0ce7fe03e50edf
21e2fbf0f80416de
f8ecf7f6fbf9e520
fddae9f5f5ee1104
e8fdfff0dff9ea06
0b03fa19e920f1f9
3bea01f6f9fbfe0a
e9faf0f8edf9f6f1
0dddee27eb17dfe8
1112f40be019e5e5
32080b12d3010906
00cbe709e3f9bb18
0a19ef12f6e9e406
d6f00f06f2d102f5
b0060cf1fafdd209
fe0100eff50ffcf4
010a08cf0a21e911
2ad6f5fc271cef2a
3b02fa010510f14a
e7f636f0e5f22af1
e3fe09d00deffb01
fc04180aec3eecce
cd01ea010510e6e3
fd051c09f10d33f5
00e6e700f012cc08
f0de0f0f12f7f8fe
daeeeb1505f3eee6
fd3a11fcf80decfc
1510f7ebfd32b6fa
fd13fffc2f0f05ed
cb0610fa1b0ef81d
0d051709180cee05
fef903dcd61fedd7
2e200d032509ea35
3feada072ff70228
08d9e6ef1b01dc09
0614e6fe15e4070e
fa16fd10f2dbf705
17edebf80ff40ef6
020b15f63f0606ec
f40eeadc2a39edf3
0bd90d211ef8ecda
2cfa030906edf411
0d01f5ef1f15f1ff
fa1af611fb0c08e9
ebeff5fb092cfde0
7ff1fa1219e720f7
f9e3eaec240d0d0c
f6e7fedfd913ff03
e704fafa2003f5ff
2e04e51d1000f9d1
fad9e9ffe2fde9f4
ff050c2e18ecfff1
131a03fe09e806fd
ba0d0df60ce80ae6
fdf52003dcec23ed
04f5f619f3f50508
e6fafee00511f02a
bafb03f8ecedf0f3
f9f62cfc2df4490c
05030fe6d91cd8e7
3306fe28362504f9
1dfee40941f12612
ff180dfd2e1025fb
19dc00f3d7fad3f8
0010f1fd16faf221
0d0bfe18e00efd0a
efe7fcf1100136f6
f10efb0ff70edee1
0ad3170b07db0033
d3f9fe2018f50b0c
fa1cf6edf80414f7
0d01f624ecebc317
fce8f41a1fcce229
f7f00ffa21e91df1
f93112fa06fe2ff8
f2050c2dda02cd06
06e30cf106160bf0
41000ff517f508f5
