f7e6d50dea01e4fc
0e08fb002b1819f8
da3af919edf80815
b0f314030feb18f8
e5f4ca01df07df09
f720f4f538e907eb
f932eef80400fc28
4602ed0bed0be817
0a03fafe0c0ae30c
e70410f52a13100c
1008071215e6052a
e904f1f4220909e9
faf5fe04f2fb00f3
0ae5f4f41b10031a
f8eaffe6e1ebf8cf
d1f11404090fe204
e51e21ed03020406
fef8001f1803c5f4
f60d131120f8fc08
36eefbf6210e02f4
0dcb12f6e40ef0ff
1afdfbf61a0f35dd
ef1617f2e7ed0aee
f1fcfef1e9fe00f4
f0e8120df00dbf10
0426011f2b0b1912
e7f103fff4200ff5
190807f6e8f8df04
f01306010305ca01
e9100be0ed0a171f
e22e10fb1bc802e9
e7f4e819f10dfa02
03eeec0702fbf412
ebf5f7f41af32ee3
cede05d5ea030013
4feef1e9fb11cbe4
0bcef2f0e209ccee
2fe5e61eede50702
fa171c15f706f1d4
15e9fdf6eaf6ff0e
fc0a220a150a01f1
0904ef0dc5f4ffea
140215e2fee9eed0
b304fb09180512fa
ec0df2fbe51ee1f7
07eefdf4c0e1fe08
e6ec1002f00d0304
06e6f4fc0cec13fd
fe05f5040904e5f3
12f0f715da172c00
0ae9f513eb1b0127
d209f307e5fdf417
10cbe7000a13befa
041717e2cfef3a13
0ff50cf4eb11f6fd
fe07f809e00b0610
f0f4f3f22bffca0a
f1fdfe002def31d7
22f92af4031104eb
c3f3edfa02f7091a
f0ff0cf5edfbf2f9
110bf2030fe9fc1b
00fd0ada0d01183e
27110be90d140616
f40d0d101b06fcf0
f518053308f22ae5
e32218fc04e403b2
00f6f2091608f501
06cedaff1afbfc11
1ff10b2e15f505fe
eb3a0af7132516cf
4beefcfc030c0817
1004f5fce30d1201
07f204dfe718e90b
f8202eed130bf4f5
d6ff0ff81b04fe03
eef822f2ea18eefe
0602163518f63704
1afb0cfdf0fdf5c4
1aebe1ffe80e0a0a
f81afcf0f206dc05
0508f7e7e51f2ae7
e4dd250404e7e515
f0f5fef300f30f00
04daf6f30112f5f3
0dff05f728fe0af1
f80ffde1051ceaed
c80302f3f5100108
0b1efffbf01a01ef
f1f5f114da0fed09
011101f1fa10e708
2ff2030106ff1d0d
eef60f04f407020f
1e0c0113e301f8e8
080d160cfa19eedb
f2f90b04e9030b1d
effdf0052210fb08
03e3f102daeef5fe
fbd3f3f508c70bcc
ceec110612030ee5
fcf4170106180bfd
e60deff319f9e0f5
06f500101aedf328
2cf80a110cf2eee6
05f10ffce1f4d905
effc09f0f510d70c
ee001503f70205f3
130805f107efee15
e6dc13e91d09f708
2415f4f6dbfd06df
e30619fb1bdff2cd
18020509f10307e9
0f0211fc31f8f706
0cfe04191ed138fc
dae209edead50834
ec0dfb050def03d9
0d2324ebea0e14eb
24e408e6fdf30f16
130f20e5fa0800c9
ae07ebf81ae910ee
f2ebfb022cfefae6
01e0f6dff92cd3e5
041805181b0e05f4
f703f9f319110d16
033939ff1df84ff1
0d04fbdadbf32410
33d9f5f70025f202
10f8f8f6ef15f304
0402f0f82c02290b
200ff3dedb1deeec
01f414e907fbf7e8
28ea1815f204fcea
ea1501fbe70ad506
04f8f10ad6e002e4
f003f8dafae31a0c
2af2fc02da1502e2
06d6ec022810c4f4
17040930e7e01007
e40300f814ea11ff
f7070806faffe909
f5d6e7fef300dcf5
d8f0141f07e501fd
eade11e7eaf0f2c8
2b0708f9fb12e514
faff21eadd0e08e1
041409f30eebdad2
24ff0bfd06e3da0c
cbe8e5041209f0e2
05fd15f8e505daef
2003e715c8f623da
f8090ddffe0cfb1d
dff1170df6eff804
ed08ddffd0f4cbfa
110ef13920ef10f4
e8370de4fbc701df
960eff0ed7f8fbdf
f0f7d1f013fd16f0
fe00f6ef33e7ffde
fe1ef70ee80109fc
ff0af00011f6e4d4
08e0d4fb07070104
f7eefeeb2403241d
0e29ffcfd5df1b19
3afceef404f5de18
fdeb190adc140ffa
230303cdc3160ad7
1e06f90901fdee1a
360bef14e0efeb1a
0b28fef92f0929f4
16fa09f0f82ec61c
fbf314f52df708f8
290502fb1cef25ea
f51d1c02ddf811eb
13f601e5eb0cd60d
1c1c15f0ef2df40b
36fcf10bfa0b1c1c
fc1110030cf3000a
110af309f2e8d509
edd816e4092810e5
25e701121f0ef610
ec0df4fa04e7e2ea
e910f4f7eae9340f
f0052110daf3fbe4
50f7f1fdf2020026
f5fada08f4f2e2ea
0fe60ed4d70343fa
dfdf06e6d6e5ff0c
0afde9eafbdef028
0ff4f5fee1edba01
081b082ee1d713e2
0700e8f8d9cc0fe1
24070dfed500e7e3
ff25e0f628fb0905
fb180ceb07101e01
e3d3ece915f50ee3
c604140507051a16
fbd6defdf3050df9
1b06f4f9160d4103
f4eb09f912f9f00e
f6f4e9fce71e0515
eb2214feda0416fc
20fbf6e2f502eb1e
eed32dfff6180211
0ffdef1319e20322
0911fbfa0e18f8f0
2518f922e1e8edef
14e10e1b1fdefae1
e4fe02f4f50814eb
052123f12ff41c09
00e80bf8da2bdadd
eb0b22f2ef2df91a
35fde9fa17fafdf0
f0ee0bfdfd06fafb
16f0f8edcd19fedc
1fd5ff00f31009e9
0e0603feeffa0d1e
e60804f8e11a0104
1a09ea00e82df2e0
0bd1f3fb000aece4
0d07f101f90103ed
0011050a31f5fef9
fff2e6d4d21d11dd
0a130af7da080ff0
4f0108fc0bfe04f9
f13627f41a0225eb
18e409f6012ede06
18eb191f28eee7f9
ce08e70cfce811f8
f523fbfc360d1eec
0ddeec1128001bed
30f1fef41f06e210
49f5fd0ff4f2e3f2
02d3e101ecfc01fa
1803062df8f11815
e5eb1de1f2f2efe5
ab07e603f81800f9
fb230cee0f1037fb
27f811d91af8e711
28ff12241afbffed
d808e8fe2be4f3ef
10d0e5f1fcf3ddfb
fe0f0bfffa04181d
e0f223ed01ea0e0f
bc030bfdeb0de305
ef0326071b09fbe9
f20108dd020ef1f5
1cfd0209060de9d7
1004f319ea0b1123
fb1e16fce913fcee
f3f9eff0d010e7ea
04cdff022104f11f
1208ff170deaf5e8
f0333ef31d0e44f8
06e20c21f1f9cdf3
35ef04f3212d02eb
3900e200060eeef2
ff1af905fe0a0109
050402d5e90dd1f7
dd090c1a02e7eddf
e20d040ce6ebeb0f
f4e4fbead711f4ec
1603f6ea09ee1ad9
df19fe06fac6f00a
28fceaf4f21eeaf0
03e404f81025d0fb
1714f40bfcf91ff5
043204f2ee0bfed4
00e8f4f406f6f7e6
12d301f0fafce902
0e021010e3000d1a
d3f5f8d506fbf1ca
1a0e1104dcf0e8f0
e12215f6070be508
1e0afff80fee0a02
051efe0df1eee006
1ff9eaf61107e60b
e9f6feee13f81502
12e4f8fad9df06e1
191bfd1005090c37
05faf005fbf3191b
ea15d5fce01db90a
0416f511dcfa04f2
0c1112fbfdedf6f4
adebf611c502d50a
05ec01eb0502c5ec
041507242d1318f4
d01bfce0eb050de3
4005ff161806f7c5
030de0071af502f1
18ec0bef20e63211
f92713eeeaf70bbc
b201ee08e2f8e616
ff2906fb2203080b
19e6e5de0c200604
fe1d16fbf1ee02df
44fc0cfd2307f529
fa25f4e612ef2cfd
e80c001a190108ea
3cdef91a2705083c
f3eaf00209fa25e1
f4dc0ff9e9f906ec
1cecf0e50d070d18
01221b0515280a2a
1b0f130a10f217eb
e9d0ecec0e13ed0c
0e0cf6d6011ae8e6
1d01fef5ef17ef20
e8ede810d80bed0f
02efc6ecdcf4cef5
ef100ad713e33e21
f7d320dde3f7fa16
c11308f2fbe6fa28
fcde02f1f5fdf4e9
0edef9ffd7d43a16
0fd9f1ece8e90cf4
e90b0309f1f3e320
f607fef819f6f21c
0ff0102af8f82d14
fbfef5fddffe0b10
0bef070beaf8e8e3
f9f1eeec291b26ec
02f50ad5eb1af715
1cf519220f16f2d5
29fdfe17f70a0523
ee1a1d02e8110d00
16f4edc8e9f8ede5
0b16020ee11af4e3
f2130efccff60508
ee1122f019fee00d
ed0df00701ff04f1
09f606ecef160c2b
27eff0fdfbf01511
050835ef340832f1
f50b0318d1281cf7
19d21916f231f503
ebf0010d0a04f810
e2daed0012fa130b
1afcece817fafc0a
33f00712fd2af637
fff3e8fffbe8271e
f903e3fcf8f6d4f6
0dff00ecd80708ef
f0f609f00723fb11
37e7ec0c1712ea18
e5213aeaee0fe7eb
0704e3d31300da03
020ff000f4fce803
1fefedfbf3f6ecec
0bdb1e0322ed16f7
e7fde2e7f1f2f2e9
35d0f306e406e403
39fe0814cf0afd17
fb2df7e4e30a1cf5
16e0f4181d21f5dd
32f9f3181edbf221
18f6080d35eee915
f6def8010311fbf9
f4f50fe111f608de
e9040ff7100d0116
2dfef005cefbdcf5
fd01e4f5fffecbe6
03120ae11ef6ff0b
fc0f1808eb0dedeb
8f03f004c906ed09
04482e0a2ef951f7
eee800dc2419fb1b
2a17f41f23040de7
1eec030313ff3200
fdeee2f9fc13e0e9
0016f012ef01e6e3
20051efcf204e812
0700fa03e317060a
05270a040ffb1af9
fb0e0214d510ed08
390e08f91ee3f206
1406fc1024110421
f6ed0501e9f9e506
e8ebee0a0f07f419
f8f9101c070beb01
0310ecfb140f07dc
fde120fdeae93def
06f8ee17efd4f303
32e3fc09020ae9bf
17ffff001e040813
