fd1a13fd1408170a
effafed814ee4ad1
ddfe1af8e2f60117
44fffdfcdafdf6eb
f9c11f05f8edfef9
0dfbfb2af5e3320e
dcfb02fbfff7fb02
dc02e7efd3f8d126
0efddb100109fffd
14e906e334ea1bf8
fa080ae50f1e0521
4bf9f007ccffe616
13eff1ea0feccf11
e9fb10cf1e0efbf7
dfe418d3ed2115da
e5f3fcf6ea04011c
f8f917fae5fcdc05
01eaf5f2be0c11d8
dfeb0f12e4ff10f6
44050017f8f2e6d9
090e1605f21602f6
1aeaf2f0d5e92918
d9e2ef09ece8fcc2
c8fefff4ddf4ee09
f0d61df8e1f9f2f7
07fdfaed16102804
f81d17ffdd21f107
c5f217070b0809fa
f2d2da04eaf4bffe
11ef10f9f5fb2714
11f807fee7fa0700
0709fd01fb0ff80f
0ffeebec2d10faf6
12f0ff08fff4f80b
d21f0aff052a0e11
24ff01edf3fce509
f3e7efe5e60dd300
140cdf31ebdf2ada
0a1611e1f41306fd
d4f6e608e5f1e7e1
fa062cfceaeee1fa
1f1104f31aee38e9
e50118d7ead800ce
dbe8e90bf0f7fe0a
e5e2e6ef12e91bfc
1fe8f81dd10830f3
e1121a04e9c515ce
31f8e10d0208f7f7
0600cfff26fc21ec
030013f612150af3
d50cee12e8f5ed2b
c50bea0ced061426
f919dcf112f90a07
faf60ed8e2f42e0b
0408ee01e2e3deba
24f40610dbeee70e
ffe302f41d111302
ede8061437e00806
e9e6ec230b030f10
180a012000081609
09dcee04ef04e600
e503f22140e8fe20
10e21107f0240d3b
56ebf1e21a0c1a22
ff1bfbfaec0c10fe
15010018cedc1e0c
f6e705edfde5fccb
bbf813f2ef0b0c27
e8f222e80615f7fa
0e07fbf92612fd04
151ff5130efe0ce5
25e9e9fd23060ddc
f02be7fdea112e0d
f8e3eb17101d1aea
20f8f71602fff9e4
4502f814e6f021d8
e2230e021209f4fd
e7fff034e7feeaf8
1d200df20ce8fe02
d5f9edfd1defebf0
f6d50bfed80104fd
21160401e3f2f6e9
1a12f2ffffddffcc
18eb07f7eef9df08
f2e3090bdff9db06
e8f513dd0cf100db
25f60e01f41509dc
070dfdf609fd0e04
e00906e0dfefd1f6
01f7df0118d91cf1
e9f616d809e9021f
dbe5eb02fef41c09
01dfefe7f9ec0ceb
1cf1e91dc7c42d17
d31bf10ae20ce8de
e702140cf1f0e6ef
f10d1e02d8f7fa01
130eec32f00d040b
defcf9fef3c90802
00eb04ee23090ce7
f203e90fd9f41cf9
e801eeeddaf3f4e9
0bf6f8fce4f80d20
def0fe00eefa0c02
0822f8fe2bfc1cef
0809f4cf0f1508fc
defc0d03062416e3
35120f10f21b101e
fd0601f1d60ee7f7
10eef735f4f211fc
1206050c03110103
33f6f0fc18fef006
180e030c080f0208
01f8080adeebe809
f3201a130af20b0f
0c03ebf6fee60012
07e113f1e0f31e00
f7e4f31fd1e2e5f0
1df10512f1ce12e0
3206faf405010dfd
edfefcef13f511f9
e802f01be8f515f7
0b040d04fed8f0f9
0a06e817f1f901f6
06e6e5eef911dcee
17f80b28240626ef
0720f9f3f3e2fe17
eaf011fbfc0e13d7
041f00072a152507
02e802f9fbf8f7dd
0ce5ff1e0fcf07f2
4710f706def3f8e9
01d1f8f9edf7d104
2bf008fcf10a1cf5
eedf13d1ed18fafd
290aecedee11f3ee
090deff901f9fc01
f60cfc031afc0c12
161209d2f0ddde09
0efa06eff21ee7f5
0fd6e50f03fefc15
f110fafddfe40706
101315d2f508e82d
ee1200ead7eedf24
eb0111f9e114fbfe
080bed1ffc0f35df
1a24fcfe06fc07dd
dcfa111316eae8e5
081fdb00fefae4fe
f81103eef204e8fb
f0eb1603e6f8fc0a
e9f9e60ff6fa1dec
f4d8050226f6eb10
29fffc131be01bec
faf412ed0e300bc0
14f6f4f616f70802
11c7c60f09ecdaf3
f40903ec26d5021f
d53df7e6dee304da
bd00010b09fbf1fb
11bfd20cfcf00006
1a0ff9d0e6de1bfa
e40ef7dffd16f4e5
b601f0fad1ffd20e
03d8f900f2f1e200
0af602000c1100fd
01e30203e1dbea27
fcfe00fafbf2e408
f0e1e90b121014f7
1908ef172909dedf
e3d7f2eb17c90b25
de04f513fdf9ffe9
fcdde0fff70417f1
f0e3f82007eafb08
dbdbf20a01f8f92d
1c01f8f2daf408f4
f5d2e5f4f404d108
f7fe14e433e50bf5
06feffff0ed9fd18
e8f1f30ce6f1f005
0528d2fb301413f6
1a02f8d00f25150a
0601fa1c1cf5ed15
eafe111305f2292c
08e8d0e8341c0b02
1e1ae602001bef02
fe1f1517eb12efcd
22fef30426fd04e9
08bff901f6e2def5
fafc0cea0cf4fa1a
1e08f0f60bf8fb27
db02fcffe1f7d60f
07f828fd070917fc
1d0bf1d80101eeea
03efdc031d06ebb7
0105e812fcfef614
093f20ee060d38f7
05fae5f2d906c20c
f7100b111b2fecf4
c709faf5f10a1aeb
0d0110f02bfb09f3
f9e801ea140d1ddd
f8e5f103fce5ecda
f3030d100ae10ffb
e8f3e10220fbfcf8
fc02ebf9ca00e2e6
e6d0fd0723d0fac3
ba08f9f81dfcdf10
fe25f3f83901200d
fceef501dd3afcf6
e9f404192c1601cd
b7efe5fd3cf81edc
06e5e80d0c0ffaf4
f4fa011006e9cefb
dae61710fb070df2
fd0402111ae9e804
f5e9f1ed0308c8e5
f7e3f3ebe617321d
e4d107e0f4030a29
dbfcef0d19f2fed8
fe1500f51a0deb05
ecf106faf1f20503
f9d911fbedf4ebc9
2bf0151600021223
e7fc1bf308fdfee5
0cf2eefb08fbfbf6
26ebf3ec0a0ef611
02e7ea01e9edee05
08fdf8f31c0d28f7
04edf7ea261ce7f8
1df702f00b1e0024
250d12f9fafe0a12
0e0f0f052df817f8
0dec0d02310e24f5
ff18f602e6f103ce
dc0220ede2f6fa12
fde317f6ffefe508
04fb070d10f230de
f0e31602fee605e2
d6f20eecf400effe
0b03c8f03314c8fb
0aef11f227120a1d
26e5f91503e4ef14
c7030101fde813e8
f9170a060201ef01
0cff010e01eef719
03ef07fe16080716
0008061bec00f4eb
0cdbe8f4def5d4f5
03fbed23faf3f3f0
13e2fe16fbc6f128
d104ff0f04ed1809
e9fee8fb0d0702f1
f004f6f6f206fb04
12e2e60600e10b09
b2fc060906e40fe0
efe9150a24061efa
f1f700ed0d010dfe
fe1df1f106200a45
3cff050c11ef2b13
09f113eeee0eee04
2216f4fdf6f404e0
e8e208fb130ff3f8
1ff902fdf112e2f9
0122120519f8fb06
020a0de516e623e6
e4fafde4edfbf0ca
1dfe0309c4fdddf4
fa10d3fc00f5ed0b
dce80bc42502ac27
d40df4f0f430e71e
f712efe5f30206fa
0134f804120b0ef5
2406f21b2af73ffc
1923100519dc15e0
d30ef1221716ffd4
f2dee7eae701d505
defa07df30e6e00d
f6dafbf8001d0b2a
37ee0f02eff717f9
fa20e8ef2406e206
1d1f09ceefe11a0a
2ad419e3df2a0fdc
d800f4f2fffcd22f
f1dfccf71006c2fb
1005fb163100f00f
da1feeebf4d208ea
daf911fc06fbdbe8
11f7d40aeaf5bd10
f30cfdede90708db
ef0115f6f9eb00f2
13faea05e305f126
e7defef52210090c
18eee8e7e1f0170b
eee20012fc08fe0f
45ef03f7f60205fd
f6df23f204f6edfe
f100f0181604fbf1
05fb0bede31c03fa
05ff0008eff30f05
fbf806fffff4dbf7
f3ebe9e81ae724fb
e9e4ff0cf9f3fade
ecedf3150ff10aee
0d0cdd11f5faec04
0df50a0918fae811
fe03f901f208f5f9
2903ff081312e419
0109e00efc0f1afb
fd00f2e13907000c
f9e8132bf502ff13
0cedf50819e41dec
f6e5d3f82f0fe4fa
2208f6341e141ce0
18101a0d15d8e9e5
e803e105e4e81ce8
f7cbfdf71f09d7f3
1c0bfade18fa24f5
eee204cc04f410d8
9d0e06e5df00e6e7
11f8e5fafb06ffed
fcf00011d225f5e5
1f19f02713f51325
4009f3171c072301
05f916f00ff516e7
e3e7f30ad7f511e8
f7e411fa121103cd
4f07e90025f925f5
ea0a2411220cf20a
fbfdef210f1c01f2
25151fed03191012
cfeb1008f8fa08ed
053a21f21cf40d00
ff0407ebc8200b0d
1dd7030ffdc8fcfd
d205fa09280c261b
05e2edf6f802faea
13f4f7eb37f2fa0d
0821f2f91cdcfa0a
45e7fefd3d10280f
f3f7d50004080ffb
1a180b19ed0124e6
ef0df309f4f7e905
12fafcf917f419ec
f6171202110ef4fe
f2e9eaec100eef16
e1d4f0f8fef710e4
ccf4f2052001fb09
f3fceaf4f50ddcf3
f112e3e1e1fa0305
17d607f60503fbd1
3601ec17ebe11dee
fe11dff817faf5ed
1e00062a1ff2e117
ff18f806fd10fd21
ebee1305f3e900f4
f0e81202d50cf115
0bfd1027051715e9
e91805e2f9fd102d
d501061ad7fefee7
fbd7f40213fa2eeb
e7eced04f9e3f612
08191e161720ffec
010af806f4f70917
ec07fd11e7e9eaf6
08eb0c08eaf1131c
13dd05030f0a0a22
040afe0a18010806
fae3e50e1f10f502
e9db0df7041fdd0f
130b18031318eb0e
c9020cfe15f00217
fd10e3f3070af1fb
eee6e7e2f91ad707
fa02000cf7cffad8
caf2fe0a02f32ad2
fbf8e80615fc0cf7
f8eb0019d3edfe07
ddeff4fbe4f51019
16e9f3f7d0f6fdfd
0d1ceaf9170420f6
16f70cfbe3fe0edb
f6110c1a0c080211
12eaf8180cf0e3e7
