fff5f30b0ae4ff03
0d05c905f6e9f7e2
401b04fc05e91205
fd12f110f00611f1
fcdaf7f6e70a0a06
05fed103f0111319
0d0906e9e410e6fd
02f4e0f3edf80319
002109faf60bfe06
f1f6350ff1f914ed
59f7f90e08eff71c
fd0205ecece10b06
0afdf5130808ef09
050106f811ffedee
bbe7f2f8fde7f2f6
0d04f2fcf206ecfd
01f410eb08ebdd0d
fef7e601eff9f00e
0b160307fff31711
05fdf0e6ebeafc10
f7000af1edf9e30a
fe05f4fe12f6ebf4
19f711010b0b0704
fdfb0e07e7f7fff5
04ea05ede9f90bf8
0105160bfc0e00fd
fef007d9e6f7f7f7
040202081101ffe8
11faf71106f1e6e9
ebf12e130cf7e3ec
f5e9001614fd1112
f50801fc04f30807
091afd02fef81309
f0f12efaece8eaf9
c31e010bf60216fa
fbfd180204f2fe01
01df0bf5e7ecfe06
110af8e8f814f115
2f0905f2e9fbf2ee
0403e2ffeef8f007
fc0201ef0905f909
fe1919060904f1f0
3c00eee5e5fce9ed
06010216f4f2e8f2
fa11f00b17f712f2
e50bfc05f1ffe902
e8e3fefe110807fc
ed06edf3ec0bfc0a
00f2010dfee208fa
f6ee06f8f7e9f001
b90509fa0eec12fa
060df717efef11ef
08e800eee81423ff
01f1ddeaf9f60af5
26eefeeafe1207ea
f4f6f114fa14f5fc
f8fe18fdf8fee9f0
0aeeea05ef030df6
49feeaec00110dfd
001109e00efe050a
0ef808fb0bfa0fec
f5f3cefff8020cf6
2711f2fcec0afcfe
0a11e704f514f30b
08fff1f1f40efdeb
0f0acef70d0d0cec
1b0205040df00017
040b03e6ee00f00e
fbf2faf5fbfeefe9
10f428f6f7080005
b319fdfd04fc180c
01060bf0f0e316f7
f90bf6f7fd10fb17
fcfb24050dea0320
d31aff07f70300f4
0309e81204ee11fc
f1f8fdeffd0de80e
0cfe0be9e6edf2eb
1f11f1f4f9fd0bf8
faf8200be9120c11
02070908f7edf3f9
0cf3e9ec03f30e0e
fe11fefa09f309e9
fefaeff20901f406
00f8130ffe111600
04101a01f60ffa05
f9f603f5ff0cfff3
05f70b0a1bff03f7
f8ebfb050f010307
ef10160f0906e7ee
c0e806fc0008fb08
f8140bf814eb07fb
0519eff50bf8ed0a
f40419f2fdfd00fc
e70e161002090a10
0a0c12110808fc0e
0cec1000fe13edfe
fe110104120ceaeb
3b1cfcedf307f9f1
fbf3f61804f20603
04fffcf6e10906f6
ec00ceedecf4f205
63fd010d05080103
01080eecf200140a
fdff05001903fdf6
fe0727051afc08fe
ebfc1118faeaf904
fdf61513ee0401f3
fd02f103120c080a
f6082a0e0fe6ee0b
08e716061c00fa1b
f2020408fafcfcf1
fa00fcf6f80609ef
f5ff29f5f0eae9ec
1beefc0e110ffd08
fa161313ef02feee
f80af80603f5f10b
f702dd0d05fff506
f20e0213feebf408
fa04fa0704f8ff06
12fc111315ebe1ee
0e07f6160c07ec0c
0f17181110010014
0419f5fff1020306
0efef804f507fef3
1d0914f603fd06fe
cee90bf3f7fcfaf7
fdfafcecebe8fa0a
0413020004f8e6eb
e5ec2e0afceae1e8
04f7fc03f9e60409
f309f6ef080518f6
f9de12f7f8f3160d
0e13dc01f4061917
2b01ecdae30ef6fc
fd0600faec0607ff
071f060b0ff41304
02e8021f01060702
e8fd09faf3e6fa10
fb16fcf5faf00ffe
14070f04ff120800
f8f908fefcf2f200
2cf406f4fe000bf3
040a01ffe9ebffe9
0012ed02000e16fc
f5f213f500fef714
d1f7081307f50108
040dfbebf3e5fff2
fdeef3f609e701fc
08f42f02fde9e8f7
020e1710fbff0a12
f40d1910f4e1fe01
f8ea000203fe14fe
01131e10fa09f4f3
c01901f2f008ebec
100afbf41013f910
08fbf414fbf1ecf6
06ebf40905f000ed
0aebfe18090a020d
fa020600100f16fc
0dfdfb0205f70905
fde7e0fd0e0f01f0
ed0907eb0f0405f9
f3fcfef70af0190b
fef911f8f9ebf3ff
f41cb7ed0614f608
da05f8ece813f8f6
0becfd06f60e050a
08ec05eaee11fa12
0a19fd000ff115f5
bcf9f3f7e6f600f7
0604ff04e60dfa04
0d050a0002e81af1
06f2f0fd0009fff4
f911131af6fcf8fa
ed0cf8e8fe0b1306
fcfaee00f2efe2ff
e9072b0fffebf608
c8ed12fe020518fb
ebf61d1efafbf9f5
efe4edf0e8fc0d14
0ffe10e90efd0c0b
bcd9f3d9fff6feff
05fdf5feff0a0f0d
f816070d250f0b10
0cf61907f30efaf9
3aefff19ffeff911
fffa030801f10905
f9100b0116f3f605
f4f91a05f5fee8ed
9e1cfdfe0ef61111
ff0013f206f6f108
f909edfc06f9e603
11f6190c09f6fc12
2ef7080e1308f919
f7020ee9f10c0d07
0416e8020302f1ed
ff0f340cec09f106
ef0a1810f6030c0f
ff04171b0ce91102
fe0bf0eb0a131b0e
eff3f9f60b050402
bfed05fef1070005
0a02011615eaf40b
fa0df8ff12feebf6
eef5fa0505e7ef08
b5ec091814030613
04f814090fe90ef1
ecf6f60df2f51309
0102f3f00712fa0d
0b1b0eeb0cf91a0c
04f6f81100e201ea
ff0001e9f90bfc00
f918c4f3ed070cec
41f7f5eff51200e3
faf0f1fe051207f9
0cfaf70b05eae407
0416180bf9efe0fa
4ce6fc2116060f05
f20a03ea07f3ff07
f8e6edf4110ffb0a
0affdd02140de60f
3f0409f0fa10f4f5
f806070713ef13f9
0ee211f9f212ebf7
0f02d1fd0af603ee
c8e4fef4ef0ef004
ff07f6f1f80501f9
ef1b05fd0102f907
0dfdd010e80007ff
2afe04f110f30307
1104f7ee0eed0cf5
14f20bf5f1020506
f501251111f1ef10
3413f7f7000cecfd
0702fbfa0800fa00
1700090a10f0e807
ede9de1cf7e8e60e
3fe8141203ee0f0a
f709f9fe0311f901
08fde305fffd0cfd
efe40cf8e7f811fd
df0408fa05ebfff7
ee160404e8ed11f5
18f2fa19f5ed04ec
f4f3121214fde706
2c0513faf4f80705
f914ffecf307ef00
130103200cecebfa
ea12060e12eb07f3
dd17f71510e50800
f01c0b06f91003f1
0804ee0d01f9ebe9
edee00001a0708fe
d2eb0d060d0af9fc
000a1405f7eef207
15faed00fffae510
04ed0d0bf9fefb04
c0f4160aff0c06ff
fa0904fcf50101f4
fdfb02efe7e70300
131bd10703fd000a
8df0f00af40607f5
fa08f10d0cec0709
0e0c0406f4f3080c
fd0fd7050a000ff1
b3ef07f6fc02f603
f1f902ea1af412ea
f31408f4fd021003
faf926ffeffbef05
e1160bebef0df804
fe00f211e907fdf6
05faef091d06fafa
e6ec2f080b0906fb
700718f908081301
eef919fbf50f0efc
00ee030d07fee6ec
fc021303e700e6f4
3f1a05fb0107010b
fff90afcfc0108f9
0e1419ecfd07f6f9
f21dcb0cf1ec01ee
930d01e7f50af6f4
0606f401eefffbf1
11f8ea0afd0ef1f7
fd06d806f304f5eb
33e8fff0fe0b0402
faff07ebfbf1f7fe
fcf8ff030af4220c
f306d4fbe8faebfb
befbfc10f6fb03ee
02fdfe041b09faf8
0505eff3e4faf409
eff904ebecfeee16
acff04ebf7eff60d
fb0702f507f211f5
f6f11909f5e9e115
0b010efefef9f80c
d7e8fafeebf4f0fb
fdf6ec1305fbf3f8
0ce90c070012e20b
e9fde80808efff15
cfe109ecf203010a
f104090000f301fc
f805ef0cffe90a05
ea0141f40ff8e7fc
0d19f2e8f809f5f7
ef051e01f4e416fe
010712edf21314fa
080be000ea13fb14
cde2f2fffc0bf5fd
08faf2e705f80013
ff0201fcff0701fb
edffe41812f7e607
52f8fa13efe30efe
0f04f1e9051112f1
08f9fb15fb0aed00
f606f8151900e705
e2f4091514e908fd
f30cffe9fe05f60d
0ffae3020c09f1e9
010ad0fafaf71111
d7020a0afaf20b0c
f403f8001a04f909
1504e2040cfbe4fd
0fe9daf7f009ea17
13f90200f5f40dfc
ee0c161af810faec
f6ebebfaf20f0eff
06f40ff7fa0ff61a
2b11ef0701ff0cff
07f6e90204faf802
050c02111debf800
ef08f30d0e11e603
3dfbfef20df1080f
f40b17f00ff3fb08
0b06f10e08040d05
e8e1ed09f500e904
f71e01f710fc0bff
ff011a0510e301ea
fde20405e5fe1017
1c19b0fce8f7fb00
c409ece5fefcf1fa
0807f4f711150a0d
180ffb140ef2e1f7
ff0bdb1c0cfbe3ee
141a1603f4f2f901
f210f4ee14070101
00faed030520ec06
0dfdef031914f9ea
f9edfefbe4fdf5f9
f904dafd0e14fff4
ff02180000fbedf8
09fcc20807e8f3fc
8f13fce9fb1400f3
040909f4ef110901
070af515f6fbd8f2
0ff1fdf8eb08ef0d
02e10b22050e040c
0104fc060b1608f8
f40205fcebfa03f0
ee0dfa03feec00e7
da26fdf3f410f7f1
03f9ed0a07fafff8
0d0005f60bf9ed05
f4ec1708e2ff08fd
071bf3fe10fc0208
ef0013ef19120ce8
040400fc06f80405
fcf0ea00ebffeb03
cb17f0f31103f6fd
ed00f8ea0e0bfafb
07ef09150510fdfc
f20700070206ecf9
1c02f90102120a09
00f9fffbeb080fee
15100703f8f1ed00
0a0001fc110805f1
fa07fefdfa000b08
fc01f7070ffafff8
fc150301faf220ed
f7f12bf4e3ffe1ff
33060feb0cf5f402
02f7141c1103f9eb
