040f080e00e1fd0d
f5f80a0b04f70909
c70303040e05fb07
fa11ee01e204fc04
0202fdfef8ecfc02
1011daf3fb020b03
3117f3dfe3f2e6e4
0b050304f404eaf7
0b0dfd0feff1f10a
15f8e20ff6f7eaed
422502f8f5f0150f
000217eaf7fe01f2
090e0b051a10050b
0a180004220cfff1
4c010120fcf5060b
03fb02ef060a05f3
f90ffd0e0e05eb0b
1b09f3020002fefa
c112f5f308f90f0c
04040bfafdfef4f7
f7ef0a0aecf00ffe
f503dd04f00f0b0f
2c0e04fdeff10c06
0304f3eb1105f901
08ef1901ffeaecfa
0615e8fffa0df510
35e402ebec12eff5
fa0aed01f5f3f0f7
02130900080cfffc
080ede0aeef4fb06
2f24f612ee081708
ef03f21406e510fd
fb22e907f90de5ff
0a0ee50ff0141be4
e1ef091202f5080c
05fff6f7f504fafa
f5f4fefcee020d06
0a08ed02060d0313
02f0e8e200f4f00c
0cfeeeedf106ea05
04edfbfd0506e9fb
0b14050bf307eaf0
48e5fffaf903edfd
0e01fa04ea0bf106
0d18f901f8f5f101
e90a19f8ef020d0e
0f000ffbf70d1511
f91013f3e5f11bef
0b0ae8f701fff30d
0012d9f3f3030ef7
e90ee7f9ec0b05f3
0df7051af0fb0bf2
f90713ed040fe0fc
f9f5daef04f60cf9
bc0dede4f905f2fb
f7f0ec13fa0af005
0cfff10a05ff09f2
0a05d9f9e904080d
fdfd0dfffd0dfef9
0af512ed12f0fdfb
07f30603f207ed0d
081c2314f4e910ed
efe60e0a00f7000f
0aff0b02f70df0f7
fffaf2f9ece805f3
f7132311f80f020a
012204fe0bf011fd
0bf6010cec05f808
0af8fb0cfafa0b02
f31508f7f40c1d14
d308fc0bff0e1c01
060a03f4eb03f5ff
0a0a05f50aeaf6f4
f8ef1605f2050c0d
ef18fb1710f500fe
05fb0eeeebf5f5f4
01f71fff140cee04
fcfa03fff6f6fefd
3f22f4faf50dfff1
fe07e70fecf5eff2
f5170b04fff7f610
1512280403fe01f7
2606f50efd0900f7
080afc0beaf3e507
f608fa0300fae4ed
080b02f5100208f2
2dde01f9050af8fc
02fafeff120f0106
14f3f006eaed19ee
1008e70ae5f913ff
fb0a08f20b00000c
080702ede00507f9
070bfbf9ff0df905
e5fb1a05f9e9dfea
d414faf709090507
06fb0a03ff181907
0df511f91511e50e
fd0610f80402e60d
ef0b000113fc000c
0a0504020df70d07
04f70ffbef0c0112
000613fbf219f0f9
471bf1e5f1f405ed
06f60b031e00fef5
f101fbf319eb08f2
ea130e0a050aeb0b
76e809071cf7f7fe
030613fd0bf40eec
0508010df4ed05fc
e803ec130701fc11
e402170d0f020811
ec0e0c1c12f41df4
0103000706fe1bf0
02f8fbeedd1005f7
e12101f1f70b03f4
ef070709e2ec15f6
0716f60b04f6f908
f904310a04ed10f9
f6ff130f15fefa01
f1031511e5ff1710
0107f4f7ff0aeaea
f7061a03f5fc0c18
0ef007e8f5060b0b
f8fc1509f5fd0001
010f0402f4ec1d01
f20fdc0f02fcfdf0
d400fdf6fa0a090b
04f3f2fb12edfb0b
0801e211120716f0
04e915faf6f310f8
010114ff06ee0d01
01110e120005fdfb
0a00fb03eef60d03
f51f15fef4efec09
1ff3f9f605fbf8f8
0df7080c10010b02
0feff8f1fd07e8f5
0809f80be5f3f4ee
3d0e0411ebec0905
fe0b0305000a0df0
00f2f0120cec06fb
0df5ed0bf0fff808
51f902f313ec0000
f9fdfa000106faf5
f51ce50cfff61df5
f8fbe20feff2fbfd
27ee03ec08ed19f9
f20903f203f00209
fa03000202eefb12
f5f51ef40bef07ed
33f506edf1ec02f3
fafffefbfc060202
f7fe16fa0112100b
0d0c0f04f5120ef0
47f20414f8fff9fc
f60af0190ff7fdf5
f40301120bf90bed
e3081d02f60e06f4
bbf20b03030111fe
0005fd070a060f01
0016eb0a0ceee60f
fffde4f812f0f508
25f20821fce8f6fe
f9f609ef00fe1505
f5fcf6edec01e8f8
f4fdcb04020c04f2
d9faffece4f7effc
08f8e2f40ef30907
04eb0bf9ff07f114
fb111befebf701f6
3cd9fe08ee01fe07
f9f2e61b1d140efa
040ee20bfcf4fff4
f80ed40e0f0e06f6
e5e40cf9fdf1fc0e
f40efdfc151308fd
f40fe70801fc19ee
0004270311ee04f2
18effaf30dfaf90c
fa01081017060ef9
040a06ebeef2fbfe
f01efcef13f0f9f8
260ef5e4f51afffd
fe00fa15f014f9f7
0218081807f0fe04
0d10fa000df801eb
fcd0270907120411
fd04fd03fae71608
12ffef13f915dd01
ef14051d07edeaec
e0de09181213f6ff
f2fbff02ec0905fc
ff10f0f90ff0f8f2
fd022e03efeaf401
250407f4faf203f8
f51016f4effe0101
11f2e7fffb0601f3
ff011206e4070c10
e9f0f7ebeffafe02
fd051906ed0c06f9
eeecf3f903eb18fd
0cf51aed01fafafe
4b01f7ff140dfe02
0905f3fa13f9f70a
0b0e05f70cf00af2
fdf910fdee0400f6
d5ee01f4fff1fcfd
f6f90501fd00fceb
f516eaf309f10109
fcf6fb1401080604
1e0600f4faf406f2
fff8fb0f04f604ff
0bfd140af912f3fa
0a09d5fcf4fdf012
1deafde8ef18f1fc
fafcf7e9ecfbfc05
0f1dfaf7ec00ffe9
fdfc1301f202fdeb
060a11ff0eea18fd
05fe0f020cff0706
02e4f5fbff090004
0608f7f00bef0cea
1afbfffbf7f5f0f8
0306ef0d090406f2
fee404f002ed0101
1b05d906240bf702
321906f50d17ff09
020d0613f1e8f40b
ee190ff506eb17f3
f30d27eff4f9f0ee
f3faeaf40bfe1106
08f309f90612f609
0bfbf504fe0b1508
fa0308fff706ecfa
470304effc0706fa
fe08fd0118f50d04
fc16fb0afa0521f2
f8e4e201070410f3
010d0210fc07fa0b
ef100ef8070422ed
000ff7020af700ed
0105fd0707fbf6ff
2c23070c0306100c
f00d030efc070b02
11f9dc0d00fbfaf9
edfc00fee00af2f8
b417150c06f50f0f
fe0716f3f5f713fb
02fbe915060c13e6
e2eee014ffeaf8f4
f5f019eaf6ff08fa
f4140414fd051b05
f00309120a02f4fe
ec03140efef0eff0
430afffd0c010500
fe07191907f71709
0ce9e706ff03faf4
04fbd1f3ef101a10
00fd02fe08e7fffa
f4fd0d140c0f00fa
06f210fd0b0d07f5
0815e2010ffbea1b
a51507eaeff308fa
fe010916eb0dec07
f9f2f8f5fe0d1bf3
f202ce05ec1501ff
1f01fa0906fcf6fa
03f9eaf70c091700
14f4f306020bef12
e919f20920ebe10a
020706f5fa08030c
f2f4f315fefa0bea
f1fbfdf8f7f10803
0505cff6f1f10a13
da121611060600fc
f8f813e90cfd0ef3
fdfdf0f7fbf20107
03f2edef0e110b09
faff01f80d0009f9
f7ffef0e16f60309
07edf80a06f0121a
f826070e1508ed0f
34f00d070116f10e
0800061a12f8ea00
01f6f7fdf4f71405
f4e8d801e1180c10
1d11fbfb09040905
010d0f0ef7f603f6
f408ebfef8fdec01
f7e2fef2f5f90be1
e20809f3080c00f8
01fb07e50e030ef6
08f1fef50900e213
0004f8eef904ee14
cce805050311f9f5
fff2fb06f51600fe
02e81a020404eb09
f20808f30706fd00
fa00f6ff0917fbfa
04f5ebfc0afdf90d
0af600f706f2ed07
010b04fc0500ebfb
dd03f2fc08f70aff
f7fc00070f0f1808
03fdeefcf9022108
ec062b0c090617fa
05000300f8f009f2
f00bfc0cf1f81202
fb101601f309d612
ff05e5f902fef5f3
dff607f2fb0bf7fd
fcf407070aeef302
0505021a1804f10c
0e092b110bf0e40a
58ea11190ff0150b
030108f40dfffeec
0ff20f0cf5eee50a
07f5fd05fff9f904
faf40c140b10f917
fe0b0e0c06110bfb
05fb03f9f40f080a
ed041cf8080010ea
b4f5ebe402eef3f2
f305fee7f90c0008
f909edef020c26f8
e4eee404f90e0706
03f209fdf004fe07
05fffbf811f40502
090b0af1f50ff1f8
fd05f1f0f6edf209
3fe9fffffbf207f5
07fafc070b0b00f1
00edf70c1bf00300
fb00e3100d0e02f3
fd16130616f5030d
00fdf705fbe807f1
050005ef0711f80b
11ffe1f20417000b
140a0b0b09f5f509
07f1fe13ee12effa
07e315f9f90efc0d
191f18f417ed0ef2
ca1dfae709fa0709
080ce20ef2f0ed07
05f4f905ef0eecf5
0af11400f90cf9fb
0017f3f5fffb12fe
f3fc18fd020d0906
080afeea020e0301
e817dc0e0cffdf05
4301fde50502fffc
fd040210eff9fd05
0c0e09f6fa07e6fe
06013104f20ff307
b7de040ff8020d07
f2fb1202f6f3f7fb
031916010003f701
fe0a09f9f709f911
bae60415030d05fd
fcfb0ee21513f5f7
0904f3f80a120d01
f20bf8f319f8da11
0f0d0404f405f406
0205f401f00e00ec
10e8f1000a0825e8
fbebcfede9f118f3
110e0106f3f10505
00020ae9e80dfff5
fd060c010507f8f7
0f09050afcf816f7
f7f80a01f80b0203
f2f9fb03dffe0b0d
11faf4f5ea0e2708
f8fdf9faf4eeed03
1c1ff8fa02f70ffb
f40dfff315f81a07
f411e30bee0611e5
040acf0def0ceefb
100e03f6ee0f00f9
ee03f50c02160dfb
0a14e009030ef20a
fcfde5f9dff4fd00
43190d0a0c110301
0801fbfe0aed05f5
