ef0204f007e9fbfb
f2f30deef307fddf
3e17fe0b130cfc0c
0306edf309fff300
0be7e9f20a020613
0ef5e7f800f80c0d
2607ef01fb1403fb
fd0a050c0f19fb18
ff1006fb0afaf904
e3e0fb0b03e4fa0b
cefb131100fff701
02ff0409fcfbf1ee
09edfcfcf10df010
ffec26fcfaf9ef04
2b17050ceb0cfbf1
0cf8f7fde2050908
0800f0f20b180ff8
f5061afddbfafa01
d2010e0601ff0002
0cfb04fafe0003f2
0decf5020ee3e2ef
08051bf203f0f4fe
c004f10dfbfa0018
fd0a0df703f507ef
f1f302f10507f10f
02f90109130af404
dd04f7fede0af904
02f2eaf104f608fd
f7f6fb0bfd07fe00
00f4dd060fe800eb
bf0d0c1d090df8fa
0710f1fef0f60ffb
f7ff02fd10feeced
fee6ff11110f01f3
15070e130cf50a09
010003f4e6090e06
ef0b0af7ebf91406
030716f20e11f303
bde4f3d9f90afdf7
00fdf0070208f000
f4e706f5f4f5f4f4
100e2706f5110910
27f1f0e800f101eb
03fcfc15fffefb10
031908020a13f5fa
feed140203ec06fb
0013f9fb05fc07fc
040fee0d0b01fbef
11f1f0fc04100a0c
0e121b04fa0307f1
ad0e0df9f801fb0c
fc0d07ecdffff1f1
fceb0806f7100305
fa13e2081707eb03
2bf70cff09f10300
fa0b050202fa0105
06ed0aeefe1506f8
ffe1f5f40008f6ec
fb07e3e8faed08fa
0c0afef60103f906
0ceaf6f8f622200e
140102fb00130202
61ebf1ff001300ea
0e02ffed1402f300
fd0f16f0fa0d03f7
00ffc7ebecffefee
bffc0a0f0ff50800
070c0003ee07f0e9
000df6f717e802fe
f1eff11212f808fc
2513f60d1704f314
f30508f703e6e9e9
f705fe03fdf513f6
0d0802f4f0fb08f9
e911fde6ee13f702
060cf614f0f1fe0e
0102fa1007ecf70b
181733fcfc0304fb
1ff0071b0afdfcfc
faf5f9f5ed07dcf6
f6f80bef0f0819fc
1bfd230113f1e90a
42e5f9f1fa0805fc
00f420ecf706fdf7
f406ecfd06edfa09
ef0601f9ff100700
f9e304ede6f5f3f9
04f6fff2101bfc11
f4fefff9fcf907f2
070d0ff20feae9e6
072e0ae70cea0600
03100cec0af00c00
eff9f000000019f9
07012df812fa0815
cbf2111a02e4040c
0c031302eb12fa02
fa0efaeff50b0615
151512f50a01f011
5c1bf5fefdfafd03
ff01051105f104f4
0af5fe070c1e1606
10f9e8fcf0020908
7f0e060a05fdfe0d
061102f8f2040afd
f6121704fbed0ef6
020628ed04e5f1ed
671600fefcfaedfd
fcfef4ede309ebf8
020d160e06e70006
04e9dbfe00050109
2cfe0100fdeb0afa
0104fbf906ea12e9
0919ff0216060df0
01f71f11e7f4eae4
d2f4081505f10201
fa071208fde90508
fe130af508fa13f7
08e51d041306eee8
ec12f5f100f2ff08
00f7f3ebefe8fbf9
070506f80701050c
0002cf0405eaf400
b81d01fcf3e90bfd
0506f200e9fd1201
0ff0ebf100131b03
15ffecfdeffc040a
3004fcf3f803050f
0dfa07fdfafef8f7
060508f813e9e9f7
eafcd300f906efe9
ccfa0d1300f4f60a
fcf808f5e30a07ef
06ecf3f2fdfc18fa
0902bbeff2feeffb
f60d0601fbfdf1f7
fcf4ea0912120ff6
09f5fc0f12f2ef08
eded0c08180c0714
090c13060bfc080e
04fa100fe7e5fcf4
0ceaedfbf0efedf4
0efffdf40df7effa
ef21f1fbf71502fe
05f605ffee15f803
f8081afa12fae502
05f1eef5e2ef0b0f
f2e00e1119100712
060015eee30bf706
02060708f9fcfe05
fa104a0601f506f4
571b0c20fc060402
f80a0022e40602f1
f6faf605fd1cf7fe
f908d8fdf7070b0f
d51af9cde11205ff
f9f5fb0f0500ff11
06fff00a19f3edf8
e2f52cfc1903ebef
ff29040109f0fe02
040d13ebebedee09
01f7f70cf8fcfdf9
dfefebfc0ef6f4f4
070c100111ebfc01
0203f7e7f9ee0bfa
07f80de7f705ea16
15f1cb06f2f6101d
18f4eff6fd07f0fe
fbf0ffff0203f7fe
ffe3ecfce800110d
170ff8f7f3fa1cf4
fa15ebd2fc18f5f8
06f7ec13ec1aff05
ff02f513fc0afd02
f5feca0d0409f9f2
d617050901fffcfb
f4fa110f13ebf7f3
04070df70cea10e9
e610f30a14fde4e9
38e600fc12f2f503
03fbf3f1de0aede7
f71101ee00121612
121930ece800f411
13d70d02040dfe05
0b0b1117f6fa0911
00021be5fdfd1103
12fce2fde9ef090f
24e7fde50afa1008
090a0ef4e0f0fc0a
0b160dfb10fff605
0afb1b06e5ee06f0
3f15e90307080ff1
05f406efe8071a05
0c0b0efd0ff8f8ee
e6fb0d0ff714f705
3116080efaf6f105
0407f1f416f406fe
f91506101dfdeffa
0808350d020af6e6
450c021c0ce3f40f
f702fb13f7e6fbf8
ff06e705fdedf2f8
06f3e3ef0300f519
310b0b05f9f9f0f3
faf21015fdf6f615
f500f7050b02ec06
fc03fb13f7fdf600
3feafcfc0bf2fc07
f6f808f500eff706
f50408f307f1eafd
f7f41dfc0cf7ee03
09f0141b0d0f0201
0af70b03efedf20d
10fee7e7df0517fb
0a0b190807f6f311
2504fefceefe03e6
f9f9fb071a180d11
0a0a1507fee80b0a
fdf2fa01edf0f80b
de15fe0515effc01
f1fff603e6e5f7ee
07f3fb04f0ec1607
0408ec030b040016
26e8fff3e10904f4
0505f0f40409fa0d
02ffe9eeed15f810
00fdc6ee03ecfaf9
09e2efd4f207edff
0305fbf9fc01f9f5
08f70bfbef05ef0e
1efecc12d8feef05
3adaee0effeaf8f3
fb0ffbf4e6f906fa
0ee2faeceffdf8f5
130be3f8f507f9ee
4ff4ed05e41df1e7
00fb00f4ec03f310
1004150911f9faec
080a060f0903efe1
def90509f5f70ef3
f8feeee9eced0bee
0dff00100903daf0
0de6f7090efcf0fe
2d16f40409fbf9f5
00f8ec080fef0209
f40ff5140ee8fb0d
e406f2f9fae8ffee
d407f70808fe07f7
08fff5e4eee10002
0cf107fbf4ed0df4
eff114fceddfdfee
2720ff0301fff6f2
f9ff11fa08fc07f9
f405fef60415f007
f00137f504fe020c
d912fcfef404f40e
f802fafbf2f403f5
0609010900eeeaf9
f0e619f6fc07fd02
e4f205fa15f1070d
03f705e7eaec0409
f9eefbeffef60910
0fef1efe040bf81d
19e1fcfb0507f5f7
f903fd0903f1f40f
0d0bef0e0904e8eb
f7f310fae9f00eed
a6020cfa0ffa03fb
0801feefef14fa05
f3fffb0a00fdf2f9
f2fe16f8f3ea080b
cef803f50e16fff5
f6f1f0e70814f3f9
0017ee0913f6f802
ef033b1711e40feb
4f030af60ded0b12
fd001703ebe7f9f5
04f00a1609ed0c08
0b1638180beaf9f5
ec2509fdf3f303fb
f200fb26feedee05
edf2fefa03ebe30c
0afa0be9eefff6f4
190102f1fbfa0af6
f903eb1209100409
02eaf00cf80f01ee
f40de3090df8000e
c2180d06fd0d02fd
05f4f2070ef0fee8
ff11fbf7f704eafb
fefa0af3e4eb1706
4b1df4f8f40106fd
05fcfe06ef020904
f4fceb05f3fb0d17
01f5e305de120a10
39f8faed00f103f1
fe0709ef0a11f703
07f90e04e8ef1312
f60ff1fee5f5ff1e
ed15fddaf0ef06f3
0e040000fe0df8f4
06effe09f6f5dafc
f004c1f103e0ffef
c311f7ef071302fb
f50403efeb11fcf1
1cf3ef17f90def09
ee14171c09f40401
481efafa0008f202
f500fb1be70ae6f8
fefbecfe05f8eb0f
fd0b2409f2f1f710
3b0cfb060207fdf9
fd0303f705fcf706
fafdfb0105e9ea08
1506180607f9f503
5f0ef700f007fa07
0d0f17fbf3030ff4
f41cfa170efcf5f9
ebe8ec0af31003fd
d4f2f5030400ff00
0903f6ebeeed17fa
0607fd02f0fcd90b
f4f0d9ff07f3eff1
cc1cfdf109ff0d06
f501fe05ffe6fbf4
1efe0f0bf8e8f50b
f515f7110702eef5
db29f4f1fcf2ff0a
fa110917e710f4f1
f3fbf106f0fa0c0a
01fdfffafffaf9ec
4319f5fa06fcf103
f609031400eaf6fb
1cf301f81210ff0b
0c0c361818e207e7
1f1aeff60e02fefe
04f5faf5fff7e3f0
01fb0b0d1c10fdec
e7081bf708ee040f
65250a16000ef401
f0f31afc06f406fc
fce6fde0f6f6fb15
0d17c8e4d8140904
b2f4edeef2ecfaf4
0cfefaeaf7f11000
0e0d100e07e1f700
fdee1efe0de2f6f3
da2f05ef1104f4fb
0409f202e8f6f4f0
0cf707ecec060005
fa0d02f1fcee0003
0726f4d5eb15f1f5
f904f9fbf20cef01
eff90ffef1f00206
12fd03f4ecfd19fd
32da04e2050afe09
0c01f1f2fe0cf710
f1f40c00070700f4
16fdf4f4f7f1fd10
170bf5030f04f705
fe0208ef080107fa
f8f913e100eaeb0c
f40be90409ef250a
11e0fadee60df3ff
1103ef0206080a15
fbf4fffbe9f0e8f4
fa00d40de8f1ec0f
c3f506fd0d13fb02
f3fcfe0d0502f8ff
03f4eff5080de0f5
0802c2050cf604f9
2c000c01fc0efdf5
f903fce7f5ee0dfb
0f1416fa11e90207
f405c3f6f3f91903
0cebfd09f60b01f9
f50909f0f8e80308
0bef1cff05ef04f7
0a02ff07f4e5fd03
a017050d060b09fc
0806fc02eb00f7ee
02fdfd0de80b0e02
ef07020809f40513
e71cf5fff6f60407
f5f5fb20ea0dfffc
