03f21113e82a231e
f609081317ce1417
fd0e01f60bfaf8fa
c1fcf316102528db
170ae6fffb27edf3
080d101721fd1403
eb02f70beafaf8f9
0cfef3fd18f803e9
0c0af3040cd0e206
0215f0e1030dec08
fa01000700ecfed5
1ce703eaf9effc04
0dfb19040109ebe0
0b00050f1118f7e1
f6f4fb02fde4f917
1210fee2fdffe911
0905e0fd150cf5bc
f6f2f80be5e3edf2
f40a0607000406e4
f6070dd7e7e2f30c
eceadffaddecf1e9
fef4fd1bfe0f07e0
07f308fbf50209e2
39120cdb09e10df7
0f140af800df04e7
02090914f105f60f
e0f40813090c1a09
f40af02622f91819
f0ede2fafb3c17d9
11fef8152a26ee0b
fa1103c6fb0d0822
250cebe51902d7e4
14f80007fd00151d
00ecf3eb051402f4
de0df4fefb120b22
2c090b08fbffed16
09f2f1f606050f2f
f8fbf2eae5e30aec
f90909dae70f151d
25070711e7fa17fa
fd17e4f20d191e16
f500fd13fd2406ea
fb1808e3f0eff1e8
07fc0de8fbf2d5eb
050df004201e02e7
fcf2f7dc112befef
f0fb03e00717fd1b
00faeff1da010829
fa10e80c02d40ff2
05070ae43a0500ff
f9f7f5f0edef0b01
17f7fcd5e5f8fee9
fafeedecf6d9faf8
fb0a04150c1af3f4
e7f307fd0aec10ec
e502f4db09fbffe9
10060af9f7ecefde
f0f404102fe50b1f
10f40807ea070a1c
1d0df118e8091f08
0ff40cfddcfcff0b
0bf70df938dd01db
000003f3f90af5dd
d20003ead9e7f1ee
14fc070819ea07e3
ee0819230e0eef16
0d090113000404e8
0d0903131ae9dc1d
ef13ee09f8fcfaf0
0afbf2dedbecfd05
09f0ee0312ff05fc
1a1206e80a0e00f3
1514110002dbe3f1
01ef0ddb0a26f205
f3f0f4df0ff40cf7
cbf4faed1b12ed22
15e6f5f7091218fc
011204eedd28e5f1
f71603f9fbfcfb43
c2f704e4fff4eb01
f603f5faf1df0dde
f7111218e00e00fe
0f16fbfc180e0cef
0c08050422f5150a
191f0a0c101bf425
fdf203150f0ff219
f50bf0e9fa0e0600
e3fff72ce81520fd
f2f3e2f9ff28e92c
1106fffb0906f6fe
0bff02e211f2f82b
cb05fb0d33070ef7
faeb0103162bd81a
0d0bf81b16f9050b
07f2faed0408f901
e303fcec1df0f6e9
fa19edf6d806e4d3
f6fc03e3052501fe
dc02fb0711edf72f
b202ff1df51af310
f707010b06cbe700
0a03f8f32f06ee19
fc0ef0fe0b0c1412
07f8f30602f5f1f7
1322ea0ff20ddce9
0202f91730ce03ff
edfdebea100e13f1
050cf219f30f05f8
0503f910f6fbea0f
f3fee70bdedc0519
fb07f2e708f51de8
170dff231ce20c2b
fef8edfbddff040f
f6f00ce8d9ed1127
1a08f412f1f3f6da
2e04f8edd2ec100d
16f60e122dfc05d5
f5eef5f5d808edf0
ea0bf6d8f5fe151b
030803ee20f6dc05
eff9d8ed050ef1ef
0308140ec610fa00
01030908110aeee0
ef070b00e8fee8ea
f8fc0bf6ffd206f4
010609222321011e
fc05f7fdf9fb020d
2ef9ecef19e61224
19f80a02f303f6f7
f800101f11ed0400
fd1002eafb010813
03fdee18090d0c0a
1b0a0e0ffa1a122a
08f0e9f40900fbe5
ee0606e1effa0206
fcf90906f91e180a
0318f1fdecda03f9
f3fa0e1bf803f203
15f40505f3fe11d3
db06f0d7d5f8d8f1
0ff70ef11321f1ee
02f402120701fcee
19fcfa071601faec
c509031234ecece8
1615e9f8f8e4170a
fafcf71f1e120cf8
ef00f2eef8f3f717
cdf50018f8f2e2f5
fbfde3f2f4ebef12
05f00f1af00802f9
fafaf61aed0a02ff
da080becfd14e615
ff11180ef5ff0e1e
f2f4f1e9fbca1409
09f20cf400071ff7
f00ff0ee14f301fe
0807ea02020c0316
0c05120a29f7e5fa
06f1060deaf90500
d1ed14df2b0df5f8
15f913152015042c
02000306ea01fb00
01ebf1f3fe0707f4
221901202107050c
eaeb01f916e4f309
090205dccb07110c
0ffef7f008f009e2
f613f9f8ec011d16
fc1a1108df150ddb
03f004e83be7e7eb
1f0c0c11f4040106
100a11edfaf1fa03
f010e0fc1ae9fbec
f8fdea0ef300f2f4
10f006f7fd081711
cd070011f1131119
09f407fa23f60a0e
0cf703d70c0af404
ed03fdf012fb1510
1f030a0feaf812e7
15ec08edeff9f3d3
f50103f1c81ae5fd
e9f90c13f4ffeeef
fdfe13d82d05f8f8
f404ec16e6fde520
f1fdf419d31f130c
0907f9fe071b15ff
db02ee1bf7effa1c
121011f80a111fe7
f2f3fdf221ce0010
f016fc161001eef9
2ef7f5d4f6d90615
0f0508f5e501f5ef
02f8f610e0f20103
01f8f81efe0814da
e9fefdf6fdee1302
022dedf9eed1f2ee
09ebed1335b90d02
0eeef815f30c14f0
ee13f1fbe6f5f80a
ff13fef516f5f31f
03fff7f038120200
03e6ff00e30d0b14
0b0c011d0619ea07
0bff00f51e210110
fffb05ddf900fd0c
f8090f0d0dfe0332
0bef0328d50ff0ef
fb08fef4141d0be2
03eef9e21fe2e9f8
f80707220eed0317
e5f105daeefb17e6
fa02120aec21e20f
0bfe0c20d4def5fc
15f9f3f7e80305f4
f7f601f8c20dfb10
04f5e1fefbf3f221
fefb0605e23405f0
0afdfaecf904ed25
d5f407f41bf20d0c
f217f8f820f90b07
060beef6ea380ef8
02020b04f0f6f90e
e01408f7f0191c01
03ff0af7e6f30b0c
fd11f32507f1f807
e70403f7faf8e923
fbe8fadd09ffd6f0
1d2df111f3ce070f
f8ecf1fa12dc0cec
ed00ffeaed0c140f
d513fa06eafeed19
f82e000f1fdb1639
f0fffbeb25ca14e1
f1fef2e0fe141006
0c0905190820061a
14260d0beee4f920
eb060cf2cbda1901
f80afcff02031a0f
2003fbffdff10ced
e9eb1a0003d41a01
e9f80c10c9e70d1c
ecf7f9eef306f0f4
2ffa0518eff81bdd
17fef90af907f723
0cf9fae9fee010ff
0c00fc13e914fae4
0af2f2e30f111300
edeae9f9f1f1fdd6
f1ef11020320e8eb
e90cff140de8fcd3
edf6ffd210e9e0ef
021b1f0ff1e3f525
01f6eb2310c3fa04
e701f80efdf51505
1708fa18120ee523
1b0dfffae9ed0af6
03f904e0c4d2ff0e
fef80204fd1417f3
d203022e0815fffc
f4060bf321e3fd05
03fe00eae5cbfff5
0cebfbfb03060afa
c605f5e9e611100d
f307fcfc140bf428
00fd04eaf40403e1
e30dfd1101f00cd2
0ef2fdcdd9eedb24
f9ffdfeb29f9e8f1
0efcfef41f2bfbe1
f2fb10ddeef9e817
19fc0ce10c080103
001a16fdd3fd07de
0deeeff103e10ae7
150bf306020a17e9
36010410e90b1ae4
0ef6e7f4f82110d4
07030319f01cfae7
e417f808fa10030a
e30e07d7fefee8f1
101e19fff6f00519
f2f3ed1ce6bb18e1
01e80413f3190221
e113ee171df9ed0b
08fafb010df815f0
050c010909e5ed1d
160ceddcefeb0232
d2f6f6f617d5fbed
03150009171708fb
03f5f4e9d7bf0fe7
08f3f315f10ffdec
ea13fde1ec04faff
0df4ed050117eacf
fef5f8eb03180919
0eeef90ceff6fc15
0f1201fff6f73401
040f0f07ebf400e6
0c04eff4280608fb
1c120b1cfcf3f303
1909090d05eae205
0413e70dfeee05f8
06f2e4f0dcbf01fd
f0eaeef1ea2218fe
3802f2fdeae7ec02
f51d04f80b1f03d3
0709f00f1dd0eae2
19f8f5e7fa0bf8ea
df1205d4f60f0a03
0bedfb020312eff8
f6fb0dfff015e1d9
f1fd021b11ee0d23
f7f8150c32e8f7fc
f3020b121cf5e613
f4eff5e434f61bf6
0508fe0bfa090bdb
0601062e081af1ea
f1090e07180f04f0
0df30819fb02f1f0
f4f9f3eceaee1000
1bf40dcc0809dc04
06fc030be4ea1714
f70ffc27dbed10e7
1005fee809e8f4f1
11f409e804e40ef0
f90f0d031217fcec
04020805ec1af8fd
ecfe06e4f8f51811
cf06e800061d071a
03f22507f6d806f9
eff207e742f2ef12
fcf102e50e09f5d9
05f7f7dfd405ea20
12effb0dde121214
0708f5e9eecf1301
020c0a05f8f80405
fe0cf711ceeefc15
01fafaf3180bfce2
f4faf40ad638fbf1
f30a01100cfafc0b
210600f030e6ffd6
f7170608e810e006
f8f201171820f818
eff7ea1a07fc0e2a
fff7f41ddcf4fb1a
ecf5f807fcebf3da
f511e9fce9ee02fa
0d10f815f0e8f21a
2cff0a122ff40a14
181b200ef6d1e114
f3f6ea0afce21bf8
f40b050ae10d0511
1805fdfc1323f021
03f2fa03ffd5ebd5
04f503e4df04dfe9
df0af1f8fff1f108
1cf9f3ddf5f2d609
ed06f9faf0f0e003
fcfaece8300d05f0
ecfff5010e001903
09f1fe1611ff01f0
f80920f3211ae5e1
0df00ee210c309ed
effb00e9f607f7f8
200406defd0d10f5
ec200b0219040915
050400ebcdd717ef
e403e8dc19041de6
3f1106100efa11fa
1a010c0105dae9cc
fff710d40a310525
21f00405080afdf4
c612f542f4030cf1
f30ff5f4f1ceff0a
f3ee0b2141ef1312
ee030b0df606fbfe
e9f6f0ed03f91018
0e0c0a0105100ee0
fdfb0227d6020be6
fffdf522f6eeedca
37fcf6050ad7dbea
1019050320150a0e
fff7e81150e5edee
efe7faf9fbf90be4
14f5fdddffebe91e
