09eee70bfc27f733
0f04f2f345bfe8ef
ea0eea12e603ee2c
cafdf6e6f2eefb04
f40bf0fc23f5f6f2
fa090c13f7cf01fc
1305f41df3110ce3
e30308f11af8f217
f60813f502f0f0d3
01f8f703c7f4f3f1
e6080b07eaf8f5fa
08fdf7f8fbf71213
17e8f309e21e1fdb
fff5ebde0838ff0e
ef160e120e04fd28
ffececdb0e13da0f
fd0b08ee030713e5
06f802dbf30ffd0a
ecfaf8effdffe6e7
18f8ef09d1ee1008
f3f2f105f12b20f6
080c132cbdf0ee18
fc0e0efcecf006f2
eb0cfef013d6fb00
ec0f04f2211cea02
01f005d9e9260600
eb04f9e3ebfcfce9
091000ede70eedfc
0afef70c0e35122f
ee1910ddd3ea0405
e508010c0efcecf6
3608eef63f02ef15
16f505040bf6f2fa
f3ee00ee10f10506
eaf1fef6f70d09f7
19fcf0f40bf6ec13
0c1102f4051cf0f8
10090ceafdce0be8
1600f8e6fd1517e2
ee0803f6161217ee
0c1cf702ee1ef9e5
ee08082a0b1c06f6
040d160310f0f910
020903041b151cfa
f205f6ff2517fc16
f9f9e40f0b260af1
e2070201e6f6f013
f908050fe5ea0d01
1013fa00ef0108f6
09f4ffe0ecdcece8
06e9ff0812f8ffe1
40100decd40fedff
12faeefc050feeed
f7f60ef9dc38eaea
1506fd1cfbeef2db
faf90411f50ef3e9
f318e808052c0b0a
f3f0f6f23ff0f81a
ec0bf4050d0007e2
28f4f707ee07f4f3
0d1607effe061b1c
fa0c100accc3f4e6
ec0400fe07fa0927
250b0114d7e3ffea
080a0af901e4fc1a
0505f81dd5cf0eff
e1f50008f50cf0ff
3a0f08f0e204e7ec
060c01fcef1d0115
f6ef0516d6faf90a
fcfbf20cfa1106fa
0e0efef9e0f0fd01
0a0ce604011b07ea
08faebdfd3f20a28
e900f6f5e91612f7
0cfbed2417f424f3
0f16cd0504f705cd
18060dcf0210e80c
f608fa11f3010e08
c8f8fbdb0005e0ee
ec0df2f0dc2c13eb
f6010f1b1034f20f
ee18021517f4f1fc
1e060623daede1ec
17fa12f90a110103
09fd0e17cf0d04fc
faedf7e0f9f5f90e
00100627fe21fcff
f701fff5eef8fc07
fa050beb06f6f8f0
ebfd06e6e50f000c
dffbf70c0d19110d
ede6f30629f205fd
ebfdffdbfdf507fa
f3eff81106ecf632
14fff3ec23090f0a
060c0007e8072007
06f0faedc5f8fd13
fdeae90fea16f811
03f4fd130c191008
10ff0906fc21e3f6
fdfb050a0cecf50b
e509ffe3ee0f0919
f0eff6ea00ecde17
1e0f0a0a0506fdfa
f8f1ea1705120423
0aefeceee909f20f
01fdf503fe0f15fd
0d15f101f4f30304
08050ae4062d0814
fbed04fd070c0ffc
16fdf4fbd60f0c14
03eb07011833eef3
f9f20ce84eddf309
fc01fbe1f2ee000a
1d0504f6dd13e1da
f205fa0626d7e4f1
f3f2f70bf7f41b21
0707021715f8f5f4
e405f3e2200318f5
fde9ed01f4f40efd
02010815f3e8f4f2
fbf5ff2701f612ef
21f603ef080200fe
f3e5000715faeedf
fff2e7ec2121f21a
140bfae7f50cfae0
d1020110ef0c101c
f708fefc19231dec
0df8fd09eaf9fdf9
23fcf8dd1201f92f
d3e801d5f301d002
0614e70b25fde811
f10600e6201c04ef
f8e60719f2ff07ed
d9fbfc09f51505e6
23e40a02e8161bf1
05fafc09d2f60508
e6f0f91bfffdf1fc
e403ff21c3f21a0b
f3f002fcf31e0c0d
fb02f4e10cd90dec
f815fe0803ef03da
caeaef0420e8ecdd
03e91308fb0d0906
f4f903f7130f14f8
edf4f81f130608f7
e8f4f11603ddf7ed
f401120af82b0fee
fe031a09c5c9060b
f10507230906fac4
d1f1f7f8e4f0ecf0
ef05150c24dfff30
f4f8f7f7dc0818fb
f3f1f0e20a030a01
ec14f016f4f5070b
01dcfe0909cc02de
04fb0907eb140519
fc0418e8f2f4fe16
1c10f9e0eff8f91b
070119ffea2208f4
fdf90bdb3d24031a
18fd010a00f700ce
26fbeb09d90fdced
0413ebeef82c0412
0f0004ca22dafedc
020012edf20aff14
4400fadce6f6df0b
0a00fff9fdeef9f8
09090b29d634fffe
0ef70819f5fbefdc
c4f1fee110f9f0ed
13e2e5002113dc28
05f2fbe6e818fcfd
f208fddefd0af204
ed04041110e6f30d
f2f3f009f1260c01
0408f8d0f311fcf1
09f6ef12060607fc
2a03fb0703ead90d
0eec05f5e2071cf6
0e03fa0fe0390808
fefb0a2418fff50a
24ea0107f7efff0a
fe03f2f70601dce0
fcf0ec15251218f8
ebf1f4e0efffef1b
e203040616091d12
090000fdd9110b1c
f2f405f6ebfbfcfd
03f70203f0fd0ce5
10f1fcf4e607f4ec
e80dfc0707f1ff24
03fd022a31e61503
1305fc0609fc0de9
e4110df0d7eafefb
0ae21e0a05060500
f808fdf0de22fbe8
e5fcf410ed0603e6
33f4f3eadf14f110
22fbfc13ecedfaf0
ee010f0ee02e1700
f20cf4f008fa040c
eb040210ea18f2ef
fd16f6ef162816e6
09fc1211c806e7f0
fd0b08feec02141a
f8ee0cf2e50c0f01
0415f800ecfd0c15
f0f00f251b31fafa
f3fe122608faf208
d5fafa19e214e900
06f30cfa19de16eb
0dfde906ed1b08f3
16fb10f70af3f52b
03f7f4f4221bf803
1213dc0af8f4fcbf
fb04f304f112fdff
0bf3f312ff080d09
1c030fdd1d0e1a0a
fefd1a0612fcf002
03ef0611051a1a10
f2f0f0deeb0cf106
1e0b0b20d8101115
170e160ae4d614d3
020a02101de4fcf7
e20cf412fc0d04eb
cd06050dfb0d02fd
fefbfb070612f402
ef01091bd01c13fb
03f6faf5e6f60907
11f6f212ee1622f3
09f40507fedefd21
edf40721de330bf5
00f6ed1df3fa15ea
04f1f3fbd2f615e1
0213290d142ffb08
0503ffd4e401f3f1
0302efe502ef15e8
4c03ff20faff11f3
efe4f2f62afcf321
03f303da74d702fd
f9fdf5fef4dc00ef
b6e602e8f605e1dd
1b101909fd01f927
fb01e80dce2c0518
f500fb17f8f20ee6
380df913eef4f4e8
070ff209091c2428
f6ff110bc3beeddf
fdedfb1c12f7f5d4
da0e131be2d91307
0ee6fc0fefd9dc0e
f0ec02ddcbda1614
e606fb05f20a08e1
ee12edfe0c0914e5
ebe6e0ed041308e0
fafa0f0044c605fc
180005ed08ef0101
c303eedef9edd511
eb1ae30fff15f9be
fb0e03e801bd0917
14ebef04f202041a
dcf5f7ec07030f11
0b0e080edf03fd1b
0502f2f71ee80704
f1ed0cf7ea0cfee9
48f60fff0018f2d8
100f0706e620effa
f60f0a221b24e707
f20400e907e9e7fb
22e8fee414dbeae5
0de9f7f3eeff0218
f7f21a040deb07ff
e4f80ff5fa0af0e6
34e907edf3edff0e
ebec13ff07240de7
00fd00e201bc0d09
01f01413fafd0ee8
03000cf7f6df12da
1707fe11e7efed07
eff4f81d361dfb0f
00f3ed17f2fbf2c5
36fcf818eb0d1911
0909dff8291302ea
fd0908f6e7000706
ee0807f6f7f80516
ddf80df5f00e0307
020c0af4eb06f6cd
f706ebe93ad0fd19
0ff006fee909f8ee
1a0af8f0ec19e9e3
101108ff081cedff
02eef3dd43b1eb0a
fc03f601e906fcf3
ddf0f2ede301e810
0a0e07e8e6f801d2
090bf0e8e31a0bdf
ed16f8ff11f7ede1
0905020f06e8dbe7
18fe1dfcfb010909
02f7ebe037e80702
f108f3f0ea14fee5
14fdffde10f5f70d
10fcec0821efe6ed
05030b18e3f1fae7
0efc0107f10803de
2214fcd7e9edf509
0404faf7090a06db
fffef829f72300ec
f90cf7fd0ceaf806
12ec03e8eae1d8fe
fb181bfb090ae306
f5f70ff12cfced09
08e8f71ae6f10ff7
32f8fef3f62509ea
0611f4feec14edd1
f8f7090cc71bf0f1
faf2100b10f80df9
17f9f6e8f7d6dc16
eaf2f7fde9e919ec
f50917fd0215ec00
e61001f802f9f80d
2c03ee0fede7fe0c
04e207f200e6fcfc
f6f5f9fa3c210ff2
0109f3e7fd06efc6
1100ebe0e0ff1015
17f71512f0fdfaeb
fa03fa13f220f107
ed01fcf9ef0410df
0816032d20200ffa
0b1ef4f10120fcda
07f8f8f0eb2005f2
f6060a1cf60510eb
1a11010eece2f820
f6ec00fe04faf710
01fb0e21c7fcf702
0dfe0200f4060102
080dfa180ef5d9f1
0b06f00de60ce814
f3f9f908112a0822
f3ea04dcf10bfb17
d8f201250ff01500
1012faf7d7eaebf1
f1060bfbf9fefe0e
e40b02ecf81007cf
effc11e301e70600
f21626faf1f5ec47
eff0f4ed09ed130c
fceb001a0e0bfc0e
25090111e226060d
f8f601070ff70edc
fcfcfe1d00defefc
e40b1103ef1a04f9
24090c29e8f812f4
11fcf6ff24f8051f
f3fcf4fc10d60507
f2fffcecec0b0ae6
1c07fce3f90b0cfc
02f00ffc19e803e0
fcf6f700212f0205
ebf6e8de0008ec1b
3301f1e9f6fd0cfd
f5ed1bff0105e812
f4080ffeffbfe7eb
0b05ffe7fdeb0cd3
fdfaf2e80e19dfe1
0307f8032413e514
fe0befef7f0af0ff
071205f1fde5f02e
c6f803ebe603d80c
0903f70e0ae416e3
ecfefe1232e8fef6
0deb0a03f4f20dd3
df0df1f1f3130e07
f7081602fee4f1e4
fa00120ce6f2f8f3
08f3081ff5f307e0
2efe0ffdddf5e3fa
f1000501e9e1f621
eaf60d13ce1b08f8
08eef71015fbf303
0503f500e81ff30e
