13df2900101d1f1a
f906f5e7150c1001
fafe01de12f1f409
00f8fa01d0f9fce5
02f1fe061813050e
fc09ebeec808fc04
edfcee07f7f90924
f30dfa15ea07f007
18ed0304030efdd2
f5f90de80e18f117
fdf4f31409f4f31f
17f40af4e2e8eef8
090feae902fb1306
f5f5ff03111e01f0
12fd03e112fdec0e
e7fe090e3b17fafe
12f104f31ddb1209
f206f9221421152d
07fffeec00f3fb20
f20a0a0420fa0b12
f709edf5dffb0ce9
fffa03fab70df404
ec0afe28130d0712
0cf314eb12ee1c09
ffeeeb0222d103d4
ebfaf0e9ed130afb
f1f4000be906f611
f30bf1f0f0f42715
f40312f4e6110d1b
0919090ee1cfeee9
ebfd0cdff106ecee
230ff9fb00ef1a10
1c06eb05f9191109
fbf6e9efc421090b
0510edfe06fb10f4
e20a0005d41021f4
0b0100f5eff50c27
f6f909d0350a0512
e7f41413e30c14ed
471307dd20130c13
f308e6f8f4e412db
e7070612fa0708f1
ea110702f6fb0a10
2206f3e311e6edec
eee80001040de8dc
f4fcfe03dc2a0f31
f3100ee2fe11f8f2
2212f6e9d3fc15fa
00f210f81bd8f8de
01fbf8d52b43f5fb
f2fcf7f5f302170d
c5f610dbd0fde213
010e0a01e6e4efe3
f7080cfa2d17feee
0dff0afef2080919
0711fef316fddff9
f8e7ef0318df0914
eefefed41f2815f1
0710fb03e5f1090e
f8f70612f2051612
ef1700f6d4f10413
ef050d06fada05f1
0602fbf20af0f315
eaee060207f3db19
17ffee07fd081d0f
05fb00ee27250907
f4111321fd08f020
1df6f517f20bf50c
1a0909fc0f0916e6
03edf11bf806fe19
12f205f8f91e0606
ec220c11eff802f6
f91a01f920e5df04
f7fc020af3181104
e0fc0300f80cf81b
0613effdf6060421
f9f7e0fc341f10f1
05fcf6fd05c7e1e7
18f6f2fb02f8f406
e60006d2d7f6eae7
ef1109f3dff7f31c
f50901ff1913f1f3
e50f0b0bf8fef8e2
da00f7f90e12d9ea
1c1cf90ce232072d
0602f60b15110a11
f7ef0403fa171beb
e70dfdf2d602f3f0
f80df9061df103d8
0afd07270005f2f2
18fa0707f7f4f8f0
da0008edfff7e4f5
fcf20df323eedee4
f80cfa16f016f40c
f0f8f9f8effdf011
ef0b02e717f71712
0916070a01fa02e4
0201f013fe00090d
06f0f0e9fb11010e
03050bef15e913f5
020ce91127fffb0d
f40808d405fa16f9
e30e00e9e711fae1
dbf80aec0de2ea21
2006f319f4ca1417
f8f5fadcbe0b0af5
04f5f9f90b1903fb
fe210b27f2032809
0bf71610fefe07d5
fff0e50821f2140f
0b05fc06fbfd03f4
ed1ff112de051805
ecff25ecf416f510
ee0a0212ec2ff218
0702f4f6ecfcf1f8
4deff70adeea080f
20f1010a03dd1212
fa04f2f01ae7f303
08ebf418f81ffb0e
e515fbf6ea08000e
ff02fa02081510e8
030503e7bfedf3fd
ee0604f90dffeedc
f0f10cd3fde2eee9
050703071bd1e31a
ffee0ae61d1f071d
faeaf4ed0612f1ee
1d10f7e310f70e17
f7fbf7f5091b0014
f3f80ce8d8e5fcf4
1e07f30dfbff052a
03fb0afacb03e613
f2000e07021103e8
f505face1cdef4f4
16ff0b1bf8040b10
db10fbe51ffef116
070cfe1017e1fce4
ecf101f2e92e0afe
f1fcfb020c1505d0
d80cf2dfe2f00c1a
12fffdef0be104e4
09fe0efa29fbecfc
0a1208f114f909f4
edf3f4ebfcf30cfe
f2e1f90ffef31016
07001026c3f50921
0bfc080b070c0ef9
e50bfd310ce61500
fafdd8f5f20f2bde
fefe16fbe22ceafa
ebf9090a07f7f2f1
02f20fe2d40df302
070b1511f1f400fa
f3f7fb080807211d
edf3ff04ee070618
0810fd0f0fff3f0d
f2fdeff12c1bf6ce
12f9050c0f2ef3e6
1ded0ceeed00ea26
05f90beb2a04fb04
f619f9091be219f0
fbfef7e9fe12fe01
ecf6f50ff70e05d2
4713f5150710fa15
e41616f60821f422
fcfdf0d7f70301f9
050af3e2eef4fe17
0901ff06f4e9dd10
f3ea05edf5002005
0cedf6ede523f6ef
fc101bff0ffe05ce
05faf7f7fde60810
1cecf90af3e312dd
fff8eb11fb0a0d08
0409f31aff04f7ec
d41401050c0136e9
0efefff5f6090bf1
f008f2c5e42800e8
100dfa12fe08f7f0
f1080518d4ea1005
ff01f004fde008ef
06f308151305f6e9
020b02fc13f906e3
06ecfbf611f6f203
02040f071610f20c
fbf70ddaeddeff11
03fe01110c0506e8
f517f7f60beff406
0f0a13fcd7e61a24
02fd0a16dc01ede0
0906fb000ae7f805
f1f303dfd8fff118
eef5fbffeedd0834
f3fbfa2bc80505ed
fd0efa23f2f6eee5
d8020f20e6111bfc
06191912e6f9f10e
ebf6fbddcf2f09f3
05edf3eced070b08
3e03f61510ff280a
182d2212021ff41a
f7fff1dd2c1715f2
fdf7f0ec02fa1e19
20f9050cf019f5f8
111be7ef122ef9f2
f60a04e307eae606
04fbff0a0ef2f01a
c10d05e2f1f8db1e
06e612f90ef2e5ec
07f80de200dd0ae4
fe1205170f08f3ed
11f502dde8e6e8e6
13f60e05f21505ed
fa03ec04e7e206df
00edfbeefafff6f6
1f0b00090af3eb11
e116eefc04dc09ed
0bf701edd2e805fe
e4f2fb20eef40e05
02e910e433fae81d
f4e6e9fe2d1a0bd3
fc090fe0f40414ff
e40c03e5f1ff0a1c
d0fbf71fe8e501fc
f9280d04eecd2308
00f911f2fb30faea
0df7f410e8f5fbe7
fdeefef3e00fed0a
0dfa1c13220d0600
f2fe0407ff2d1f22
fd03ebe7e50c00cf
e311fd18f91b08f6
0507290cf4e4fdff
fcfd0f1ac9db0ef0
17fb041a08190ada
34fc0010d50a05e1
00ff00fce3daf50e
f6f20711e6e70115
0cf9fc01030614ef
4c1fee1b0b04f8f8
0c00f9ef150f0f18
060afe091b2af51b
0905fb00f9f3e6d3
34040012c5f4f5e1
24fa0020e6f4fded
f7fdf30ad0dbf71a
ede9f3dff31f0fea
0c0cee110d242d12
ee11fcfcf0ff2be1
f3f1022fe70205d7
10fd0c06eff20906
fe01f90c09da080a
0dfe0c07f0db1126
ecfafb02edf9fb0d
eb0afbeb0a0bf702
f9040008ed1fed10
13df060c0c0e14e1
f807f319fdf70a00
25eef9fe18ecf7f8
03fcf21ce1eff012
f305e2fd2426ebd7
070beacf15b405e2
fdebf0ffedf60309
eeee0d022a08ebe6
20ff0d0311ede921
f8fa07dc1cd2f611
0e000611f20f1ae5
f81cf3f5f31bf5ec
f7e30beaef23f0fa
fc0aea2623f00cda
06fd011b0bf7fcea
1dfb060ae8f8e9f1
0fe91406f7190422
0b070636e82ffc10
f4000827160812d1
e100f40b1a0726e3
0bede9feec102bea
f5fc0c2cabdffddd
03faff2714ff13e5
160803e7011407ed
1d192019f810fe10
03f410fbb01908fe
f3effd1af7ff0714
fdfeef20f9ff090b
f308e9022e03edc7
011513e3c5d5f112
e5f5fe01fd02f8fe
190ffe140bd3edf8
0efcf20311e80a12
fe05e9fc0f0f1403
f2eefdf50e09100c
010def1feff80af3
ecffe5f4e60efcd2
eff3eaef53db0820
0f08f3fd0305060c
f5fdf505dcff1103
fff40e05f22707ff
f6fa0d25cdfefef8
f91c050d13ed0611
16f5fae2ef0de4f9
04021f19090fe837
fff60b1bb719f8ff
edfdfe09fb16fec4
401e011f141b2503
f607f0fc16e4f00c
060309eeeb0debf0
0c180719060617f8
1df1f813f4fb10dc
0105ebfce5db1ed5
fdf70707ba21eb01
0315f5291108efe2
1e0207e4050be2ef
f01427fc0edf1326
f703ea2021d01312
f306fdf304fd0af9
0afffef41f100ffa
11f0fef6edd5f1e0
0709ef1fe01301f8
e8fef911f4e70d0b
0bf6fbd6e6ebf8ef
f10afff3fbf60ff8
ff0dfb02faf90bee
ecf10cf9ee08fd0e
ff02f8e1ffe8dff3
0b040e0debf81f20
f4ef04f4cb20fe19
feedf3f011070f0e
dbfaf40a1113fefa
0403220109e9f029
eef3ed05ffc6fbf5
fae9fbf111f1f8e7
170ffbef0000f113
fd2005093215ee08
f9feffd52df608ff
f3fd0218fd05f123
15f3f6f9edff0010
f6f10cf4f8ffebd2
ff010cdef32c0108
f5f9ff0d0efdefd3
21e9fbe830e20dff
0a13070e12dff3ec
f80210d9f9c1ff0f
0e06fbf3000d0c01
33020c1719d5fa03
ecfc0e0bf2fdfd20
f5fa0109211bff03
06f90305fc041423
1d0200faf904d70d
faef07020c1bdd35
eef1fd14e5cc1b17
f3fc0ae7e71313fb
3312011216150a1a
020cfa0bead70904
0bf7edfdc0fb08f8
12ff071df3f7fceb
1bebf4fc0506f71f
09f41106ec0f042b
f1fde80cbaf207f3
eff5fbe9ecff11ff
2d11fc17ed100719
0ce91cfcf5191e08
fdf203e837e00b0b
11f4ede7f906f8fc
c9fa02030218e5fc
fef51dfa071017ea
ffeef5fa0e00060a
f0eefaf517ef08e3
1c06fb1ff012f5ef
07e8ecfd0921ece9
effb12e15b4df210
240501130af2f81a
cc060518dbfe10ec
f902f6022111ebd2
f8ffecf5ca1b01fb
020103e9fe150715
2306f0f01b12efed
ec14f9f50ee7f5ed
fff3fae7d723eeed
e6f60f23efecfa04
d5faf8d5e90ef7f6
f519110aebf2fdf6
faf0f22225d0fae8
eb09e7e20e0507ec
e40cea1104041b05
