e909f8e10b0f0eda
2fee024011b739eb
ebe5e8fce1f30412
a61420d6eef216ea
e004eaeff9defee7
ef151f27fb3ae7e3
1be4f9d3fa0f0a13
0bde0702ff09f0e8
fb1821d6f901f61a
ee0e1bd02040f3e7
eefe12de0808e2e2
4a2f0cdd17e70eff
0c2207e21df60b21
3d3b22e50f2d02d5
0413f9fb3cf8e717
e5ef05e9ec020ec5
f706feeff5e0f4e8
32311a090cd11135
0cfcc2d410fd0af2
f713dcf40d121fc8
cbe81d2707fa13c5
03f908093c052421
07f0fecbfe201024
ce0106e2f614eed9
edf009083d1a04e6
482a1bf2fa2a2506
0df8230e3b0517f2
2307f41ac81de224
dcf4cd27fed106db
b322e0d1de09dcf5
0502dffd270c0800
151b10c81a01fd10
ffe3bc2e35d7f5ca
901bce300d0bfaee
18ffd7e60a2debfe
101bf6e7cfc9e3f3
0c06ffe90e17f510
c707f905ddcbd126
f811e104010424e9
fffceb17f0232d1b
112a110bf92becfd
f82a26c5de37dbe1
0b22ce19e9091618
d709caf1d8d8fcf3
daf2e9f736deed13
d4fcdf04070606f6
ecda050cdb0cffd3
fadb0e09270eff01
df173036e8f5f213
115a250c1f190c08
eb1125f006e006ee
58240a0e06f4eced
0fe80bdbf908ee11
2af4d30ae1fbf8de
ec1ef21411e30410
200e15f5e602ff11
fbfb0d1d2c0c0bf6
13f7ea0a160dddf1
ec14f1f90500eef1
2522fd0c0afd0717
140b21ef48f1df09
b818ed0feb0d00e8
151c09d3f7e5fcf3
cc53070a051b1b23
d726ff0a1df81d14
63d6e91502dc2733
090d321dead4f415
2c5f15ea080115ef
0e22ff10fbd801ec
52e01a09f00b2410
fafdff24fc0816ff
21190eee17e01bf8
f9f902f62a1df03d
31e70e00f3071ddd
fd11ed1b0af50414
ba3106c5e0f8f0cb
021527e208edfc30
5ffdf0fd01e40b21
16071beb3723e702
160aebfaec10d3fa
0acbee1812edf2f3
e7e8e1c7e8cee5fd
19ebd8f2f1071fec
c0d5062cb4f81edf
f6cc1e15e6e80c00
53e719c848dff028
fcf22f160b20e838
57df11d1f437fe08
e6300b12f615061f
18d8210510e3e10d
fb06ec0d2cf71713
f0cd1c0c0422f7ec
da1ab8e0dcc8fbef
31f10ae226b719ef
1d25d8defcec04e8
f6e50710fb03f8e6
09e1cffffbd51104
3fe8f7312eb131e6
16efcdfc071417ea
c40604fa02f81cd7
df13f8f5d804f2de
3fc7d6ebe8c8e2d4
d20e1d0401f512da
df30eb291fc635f6
2beef6d33133e212
c42102e70f3821e7
f423daee18d127e2
07ecea33f4b5f4eb
dff80beee916eddc
dddbe20ff2e9eacf
0e19fbfcd9f82512
d6e6f5df4b02fd4c
04022810f30ffcf5
1b580716e70c1120
d6301003fb021a01
cc1bf42f02bb32f4
152d2f28f9060ae7
0aee121735f213ef
feededd022d8060e
0f08f6c9e418d316
e10314e2fc190a1e
2bd205c4f5fde3ca
ed15060d41e2e208
fdd5e5ea0afbf704
0bdd14161e24e7ff
06fd0fedc1fd08c9
e9d93ec3e1ea0de6
56070237ff092221
ebf51dc5dd02eee7
b7f6e0eacced1043
f0efecfb00061ae1
661414f7152ae534
eb1626f412f60ef5
4d121c1318dbef10
120e06fe1212dd0c
461c05f91af9fdfa
18dc48e90af3fc1f
1efe0bf9011f290a
e1db23230609fefc
c40318d4cccd15c8
e92f131226f01909
62f310232c4b1ef4
1e13f9ec0511dffc
2cd014171821ebbd
1705164129fde91e
d6340d12d826c2df
042526e0eb031115
f700e70fef45f201
ccd633f3d8d521c5
fb1a28234fa70b24
fc2922d92640e11a
26db241aef4602fb
f5170613181aea2a
2b10fcfae5e20d06
0a38f4020a0cf322
0edaf1e6e622f715
fc16e5eff0ed1ae9
1033fd1414f7e72e
1910d5dafa26e71b
08fc0ada1528e6d4
d114ed031dc31d00
d61ae2e6e5031810
0221f306e9f6f611
a42416f505faecea
00fbd2fee3f8e8f4
c1ca02eee8e6def2
d404f0f903cb00dd
0ce202f50d2b2310
1500dbd4101afcff
c40d04f2e7581ce3
e60108fb00070d07
e21efbe8e92221d3
d31ecce5f5d5f4e4
18b9f0cbcee4d9ff
e5eb40fe0cd60ade
e128fd063fad375c
14e70a212012edec
e3e3f221ea09f3cf
fdf728e8d51b1bfb
cf03f128ea0f112f
0f0b1b0507fe170b
2814ddfb20ec21e7
faf208fc3002f226
be010712e517d2ea
e3f114e8fbe4dff1
ff05f9dad6fa10e8
17efe9d50ee3f40c
11d2e4d1cfe30be5
edf61ade0ae3e6ef
ffdef3ec0817e6d5
10fdfae3310414f2
3a2cf9ea06f51125
