01f8dae1f30b1a1f
0907faeb192df8ed
091ae525e8fc08f9
e7cc02d6e205e205
1a1724d6f918f908
3222082c00fb0118
fa18e22afff0ec20
dddcf1f2ec2911e7
0e00231315ee1424
fd22012b1839fbd4
fef9e0dafaf0fbf2
e823fe2423f1ea27
f11c14d848fd0409
ea0710fe03ebf6e1
0c11ebd8fa1bf305
d0d803c81dfef501
dc021debf2f005ff
05df07d0ee23dd25
12e81ed812d62030
49daefec1b12f6f2
e6f2e4f2fa00f6e8
a6d9fde408f9f1f3
11fed8cf2e1af13e
15e51b0fe862dad8
1c3cf71e2ae908ee
1afbfe22ead2212e
f71632c203d70419
e128f21a3604010f
e7cdffead9fc0fdb
12eaf7f9dcd3f4c5
062404e60c02fd28
bb25fa0dfb06e101
efe9010013ff14db
f6d2f5e9ebfdeae5
e70dea1ae6e1effb
312419db0935d510
14e9d7021de70dfe
ce22f406eb211305
de1b0c2015001b20
e302ee170cdb010b
230beb03f20aea15
3d11040cf70d04e0
f9fb2be2ddd30c05
5113d5300a3c2c1b
030924ed1def1bda
3812ec27160ff122
e9f7fd250af8092e
03ee021de40cefd7
0c0626fe26dce215
f2370eddf11fe309
fcf8e812f1e6101f
f43de7e0eb0dd4ef
e9ed141615151c21
fff9f607f5f41c01
1806f1e710e2f40d
b5f2facdf411e7ff
f606e9f7ebdf02f3
ec05eb06fbee0ff2
140bdb160bf7fef1
2315060014e5011b
0ae5d405000b2012
09020feefc1a10e8
1c25fe26f4fb051c
1f1e141cf91202f7
e50a1c0fd8d40de7
7f3be60ef2fff925
fb1f0b0113e8def0
1adadd0bff1a00f7
0506dcd107080211
f4dbecfadd1af4fc
ef2b2a0a15fd140b
fb130dfa00fd0cfb
23ecdcfd0a16050a
cbdbf731e072dce3
de00fb0fe0faf8e4
2e17ddebea1f0417
ef24fc0e1cff171a
d51407e4fe19e415
122b09cde2f8ed13
cadd1dde09041ff4
f4dfedee39d202f6
0ed6030503cbfc19
07ee04d6e119282c
071b2803df12041c
12ebf319df0d0314
f2e4f809e61226df
06e90315f70fe225
fe061209f3241135
1535e318331c0ff4
21e521db15eef323
ea0642cd1cf11003
50f40e0918151cf2
f5ede12fd4e1ea01
bb2505d9f902232a
0a0bf8f4160de4f5
14d9110fe83e0ad4
f4ea12eb0cff04d6
4027dff6f8dd1c23
2011e80ffa0017fd
34430cf02429181e
e3ffec1ef5f3f215
aafce117f9cdf8e7
eff4d4d011e41d0c
35fffa38fdd222e3
081c00e4ef10f102
530dfb08f30d1f3d
fafe23e6080efae2
1f391530dbd61726
f80505d603df110f
d8e804f1e81aff3b
e603fe0bc72311f7
d53cea0be3051816
fcecff160201e424
2d1ad9ebe50de803
e211f4dbfb20e9f1
c9e9e023d71326f5
ea0d100e00e60819
de31030408ed251f
010b1ed3fc070819
c4ea291a135aea10
ecea1ddcc3f405d9
090e001a12efe8f1
eee20af30beb07df
c5e8edfb2af9dd1c
f8d7e81bddf31801
2eeaed2627d5ece9
e21ee2080600ff20
c842e813c5e8172a
e7fb01c907031518
d3eeebea16250316
1412fc2d2ae1f8ec
d7ce08d9f1fcf0ca
f40d30ee001a090d
42f3e8fef504ee1f
f923e53224220b15
c119e80aed0bdffb
18f6f003311af62f
29cf2413d76ce0e9
0efbd41903ebea04
baf005f01710e7ec
1300f91eeae6edec
39c4fbf806dcfbf6
e3031ed7e100f106
2dc9e316dc1e1731
02f2150a01edeffe
3307ff0b19fb0eed
1331061514041e09
49f413ea1878f3ec
dcd6cd2615071bc8
f039ec171fda19e0
fd1a02fb0e1e0dfd
26ee0614fa301f28
0b4302103af500fd
07e0fffe190ffdc6
0215f0df18ff0616
f6f8ebe835220035
120af41c04cef7c3
ee02fc19221e0f18
ed1002eb38d90e21
38fb021c0767eef1
f70112f6c7e9ebd5
c01ee7f2e9d40523
0be4fbce1bfcf721
3603020d0be1fe50
fc1405260ccdf9da
2a08f9f511efe3cf
ed03d9dbd4df0127
2cda1218fb3b2f0c
ff1722d834e4ee39
d41c0b28051df4fd
15f7300feefd221e
0ed812f4f6023716
06e7eb1f08f4f4f2
05c8fa1708f80a07
f71efff8d91b090e
c94a1814f4eb0100
0be0dbf1e308fcfd
24fee5eec511e0d4
dff7cfe5ede317f7
2b34f6fcfe0e2701
eff4dce0000a41ea
de1404290808451d
f6fbffe61e0e031b
1ef61d1cff2cdef2
e5ccdc161ad60d19
e9d009f409fc01ef
e213dae41b080d03
01dcd8f6f4ea0f2c
e0ef1deb0e0e1706
11e6d91f1020eb22
14f9121bfe1107e4
d007ded1ed2af000
