ddf0070645d22fe6
f42acf461f0425ed
fbd4212b14011314
f01cfd1ffd071420
fa20081d0af301f4
41062205d03fd91a
fd120bebcef7ffee
b409e907e90df215
0e1700ef021c181b
16d00bdde4551c13
dfece0f309d002f1
1824f9f20bc91902
1810000708e2f72d
3ad9f71cf3eb0f0e
ec05072920060430
56110bee1510fe1f
f5dc02feccdde7ee
19cb05f722ef0ce7
08ebdd190ae73003
20021101281301e0
09e7140afafdfc07
e6d8eb0dfbe6d0e3
1923da1a000fff29
46f427cde9ee18d1
14fc27f0e10c191a
ca1e15220815ed0a
0e0101201415ef10
d31dfb09fc090c04
f7e0ab27edcd07fc
ab17fe19c10ef6fe
fdfdca002b190819
f91e0cc5073b10c0
e91702f4e4f1faf3
14f8fbdb15cd0ee5
ff09d419df0af4f8
b0e3f131de320102
dfd1e020e209fb09
f5fb12dceedbfd08
e5e6dc16f50902f9
33f7d10d252cfd23
08dfe40c24110f19
2dfa16d8ff27f7e1
f40cdf0813fcfc05
ea0bd520e9f52219
e2f8f9f60c00e2e1
271507d7edda171a
2802fe292031000e
efc919f7fc22fada
fb07261af1d4f306
f1e52324f21dedfa
1a1711fe150a0234
4adee3f81715f01c
110ec81b4321f6fc
f6100b16f649f0ec
f31cebf2ff192105
00d200ca09fb1eb9
db05e540fdd90fd9
c7310101e0190e13
02e503262908efdb
c5eaf1e6df04ec0d
dddc0de82810090d
f817030f09ebe2f3
ec0e04f81d03faf0
da11ecdc1e0bf8f6
0a23e2e709d71913
1b010617012002f3
12fb1d07ec0a13f6
fbef11e529261c31
fff5dce1060928fc
63e0fb112d3c1b09
070705dee52000e6
42d4ea13161a0a2c
1903f9e929310ef4
fe170cf8fe2209e2
050a040f080cd2fa
fe170e0bf00cf92c
1cfa202735011901
50d826ed1d060509
021124062113e814
5a1c0ad9f9270e1c
f7edf8dadcf6e4f7
f62a11eef3caf42d
241ee50e221530ee
c4d0080a0d193119
e715c5fff3da0213
1a06d3d7182ceae6
3313e8091327fbf9
f4f60ff0012e1be7
1506160c1119fb1e
3323fc17fe32eaf0
1505dcf03601f5fd
02ebeed9d6f0dc07
f51cae1d08f10c0c
b6db01f3daef1bdb
1711f30cf01c0e2e
f619f3fadc35f3bb
d3fc0bda18c60fe9
23d603f61ed9d9f4
fc21ebf5f30f1fe1
2b06dd3525d60e15
e7e3cb0f15e3fbe8
2ed300df0a18f209
f42bf6d7200b0ae3
37fefd0fe4120b1c
1c1e0ae421fc08ee
192522da013af6e7
08fa05ed0e031d12
c7e9da0ddcb8fb26
f5e8e3e91c07e7e9
a0d409d9c1e90c01
ffe3d7ea1e290eea
bd15fff502f3fe08
ecdbf1d2fadce6f3
202816f2edd700ec
dc0219181b1c1df6
27ecf30cea0b1146
deedecfe3028ff00
d3dbe01008ed23ee
13fe13e423feef23
e024fac8122fe0ed
f3cddc39260ae9e1
f7dbe4f3d0df12f2
e9bfc7f011f70909
322cf41011e71ad5
f202e43f20d3ddd4
2c19051ef127f5de
ec17eae7cf050efe
e1e7222023e02d33
070c1801bd0eedef
acecfd03db31f4d0
e3fbedcf09dd011e
c7d5110d0bf8300c
f92b20f7f5fff504
d9180a12e0d4fc1d
0a03e5f0ef171012
dfff1505f819eb0d
0ce1001f3607f33d
dbf8f32b1939e903
fcded2fb31faea16
3ceae6dc14220b19
05e1ff23010f0429
4215f2090cdbf30d
02e3ff23de1c1319
d42f0af9e42eeb03
0af7f815ffeadb02
f4e1060f15f8ecdc
1322dff014241f34
2e0bfc34ec191426
dd03fcc536e023f5
f61eec2f0ed314f6
1fe241e8192bf637
bdf6140e1d011e18
fe10e6e4ff1e0604
42e4eb1cf631ecf0
fd1bf40d3e07de1b
bb27fc1bf5321220
070cbeecdad90efd
aa0fe52b06f40600
fa27ffe9180ae530
19e9f2ddfdf8dbfb
f70bffdfd0c805e6
d526f60949cf1019
f623fff1091f251a
d9f10b28f5283037
ede1e81217e601e0
08cdec10d1cd0619
1316e7e7e01312fd
bfccdaffe017f027
0de2290df5ede90c
02d803d21f2f28bf
04e815011ce9081d
b4f0e32b00f92b37
f4d2d31bfa06f218
cc2bd8d3ed23d6ca
07301ed50f221809
ad32eb42e5120c2d
f5cd21ebe90c10e0
0311f6e7fced1c29
100a10f822db0cf0
f40d0101f81bf3e1
dd25d5d7f6dd26e3
3c25d8fd1b360215
041b21dd1ee4fd22
37f21103f0f9f8bf
09e7db001de0edf7
a43d0513e2fde017
11c8fb330817db0e
ea15dc02feef0dd0
fb15e53a2e1105df
d909ce12c519dc03
1e0fead6f8130cf3
301b09e110fde00f
