eb03f6121c06edf3
0616000011f4fff2
fc0c0308050100f6
07f6f40e0d0d2101
f504090dac0bfe05
1aff14ff010301f8
faf6f6020209f301
f1fcfc070102fbff
0f04eddcfb0af502
f90312fe09feedfc
03fae00bfbf8ff08
f4f406f9f7fae00c
f3f200fbc30009ef
fdf614080521f4fe
01fdfef20906000d
0aecf11d06f9c9ef
0102150dce0c0708
120a0007ee01f3f8
f10f13140208000d
f6f1f41cf7fd1afc
0a090f04f701fcf6
fe0905f905ec0504
070805f903f10ae5
f7f309e0000cebe2
05f3f3e01fe4f609
fceb02fcf01ef9fd
f10add0e03fdfde4
e913fef20af73ed9
14faf1df230b01f6
f30401fb04fa1907
0de91a04f60101f2
0df604f1f608ccf3
080af5e615fb08f7
08e6fb0f040d16fd
f8ed070ef8fef6f4
010903e0eff21b0d
edf90cf7deee00ee
f908fb03050a0ff3
05fefcf1f6fbfff2
0fef08f8f40ce017
ea08f10f3ff9f004
0d03f5080a06f0f6
f502fa0d0717ff14
0cee0300f2fa3aea
04fa0af6ecfef801
fb0b0103fd15f7f4
040e050e0201fe19
fd01f41015fe0ae5
fffaf50725fbf204
010409feea05e4f7
03e2effff2fafcfc
fefdf9190f01090e
00fbf301b7e8fe02
fc0109f5f7f70005
02eff305f709f5fd
060cfae6f6f7d80a
090303e22ef2f2f8
0901f202f1f7f1fa
f10a17f6fb0c0707
ff1508f0ef01c9f3
05fe0ef2fe07f808
0403f70af1edfe05
fb0b08f4f9f202e2
fb100202080002d7
f2f90cef0c060ef0
f7f9fd021be50cfa
03f61407fd05f8e6
f21005fa01055b08
fdf5f514ef08f6ff
f9fc03f5fa0eebf6
f8f2dd0efdf0f3f8
f5f50200ff01e302
eff5fffe3afeeff3
090bf704ec22effc
02d8e911071a0907
0df5f7f81008dc08
fbf60711e7100709
14fb0bfffa0603fb
01f7e61402fef313
0e0bf9050c010401
10f9f404b509f1fd
0c10f301f21e0cf6
fcfaeefe0a16ef20
fceefe13fcf6d61a
f607f6ecfc07f105
eb0bfc0420e9f5fb
f8fefc0004f9f5eb
03f8f3e90206f001
f70212fd24fef504
11fb02fa0a0af9fd
010910160c1501f9
fcf7f907ee0926ea
0cf70df9ef06feef
0c04fffafb12f0f0
fddafd02f9070715
0a0805ff0a051600
0309f5e60ce80501
00ecf1f8ebed0f07
05f41f10fbfdf612
e601fcf9ecf6f409
f2000513d1f702ff
00000b03060dfb07
fe0af109f90bf8ff
0503f5040c07c3ea
0cfefde9f0fcfff5
0bf8f3f8040afcf7
f2f3050305fb0010
f4fbf9f5f7ff400b
ebfc02fa1406f7f4
f40b0cf5f9fdeffd
01f6d7ecf4fa0505
0a07f6000301d3e4
fa0b130007faf3f7
0c060d03180ced07
0409e2f40a0efbeb
0dfd03e706f7ff00
06f90e110a000500
ec06fcfc17fcf302
f6efe6fffc07040a
0d080304fdfa2604
f5060a03ee03ec00
19f6f8f71a07ee05
0cf8d9f50c15f309
f7fc03f80b0e01f2
07fafde2feef07f6
0ce6090ce90b08f7
ff08f6edf30efd03
f01a0c01eefa04fe
0ff50af22e07eafc
f2f8fffcec0f08fb
f60de4f2f810f2f4
faf7eef2fefe2b08
ed010b1a10110905
fdfc0102e9f60af5
0e12fbfeff0f0202
0b030aff05f7fefd
03010eec0306f201
fefa0f041500f6f9
fa100deffc05fa05
030b0608f9081d0b
fcfcfcf628f6edf7
040713fe13f901f8
f804ef1009f3ff03
160a01ef150307e8
f4f3060308130bfb
0c01f7fa170ef404
f7efe2f1fffc0307
09f9060210f8faec
fb0a0312aae9fbff
08f6fd08f215020f
010c0f03020001f0
f70f06e3ff07d105
fe0502ecb4ed0bfd
07fa0cf6f81dfdfe
00e6e8f1fc04fced
f007f1eef2f60df8
0b0705e412ec010b
0df808fbf3f507fc
0a06fafa030b0213
fd04f4edfbf905e8
f404f102a5fb0901
fdfaf504f41d0601
0efdfd0305100b04
ec020106edfd0cf9
f3fef6fe2df4f8fd
030bf8fa060fee06
08f70af007140900
14f703fafafd19f9
fbfe0aeb5e0e0ced
ef1315fb161aed0b
040a17ee0afa0010
18f4f2120aff2100
06010e174b12fff5
070205080e09f3f5
f9ece3f70e08f5ed
01fbf7fc0b05d404
fd030af90111edf4
fdfa03feeff5fef5
fb0eece7fcf8f8f5
1af4ff15fc09e105
fe01e1ef91fff700
fae90505f6000506
f5fae8f8040005f7
eb0405fbfdefd0e0
fb06f415c5dffe0f
0dfb010cd9ed0c0d
0708f517fd0508e6
eff7fc0303f9ea01
f60c0f06bc0610fb
fc021205090cec07
f5f415f703f5fde8
f7f7f3da07ff24fe
f901120dc702fcfd
000609fdfd0e1701
011108fb09ef02e2
09060ee7fb082f13
08fb02f30102eaf9
060701f3eaf0f2eb
fc1101fe030feff5
f8f7e8fbfbfb0d06
ebf60513fe0f04ff
fcf715021ef5effb
05e5f4f80a16f8ed
fe01fcef0a1128e2
f3f51015281b06ff
f8150a081802ec00
04ebed040b0d0515
00f306181604f4f7
03f90619ec0607fd
f20ef1f615f5e8f3
070ef9fafa08f40d
fcebf50408f41ff8
f502ed06bfeb0ef6
0502f5f6e7fd01fb
060ffc060707feea
050200ddf8ff16f1
f8fb0214b806f5f2
1501fdf2ee1fe2ff
fde1d6f3131608f6
fceff701fb0df9e6
f9f10714d806f6ff
09110c08190bfbff
faf0fb12fd0f050d
2204f6f1031311f4
1706010500f003f7
0106fbffd610f908
021c0d09040ff817
e9f8f4effdfcfc12
fbfdfa1ac206f2f3
00ff0df6f41af7f0
f20df4f20c0204ed
1006fc00010bd0f9
08f724ed1400f601
10fd0cf321f6ecf8
f6e007ed15f5f8f9
15ed0209f60f0dee
f6070d12c8f508f6
f00317fff0fef2fb
f4070bee08fcf4ea
fcf9f9ecf80d35e7
00ff00f5f8fc100d
fcfa13fdeff6f4fe
0609f0f5fd00f7ea
0af807f7edfce5df
f0fbf60cb4ebfcfc
04f605fe100e07f7
0c0e190e060802eb
1102f9fb0208dc03
eafc0e21cb0efdfe
07fe03f60b11f802
00e7d8fb0a0dfff4
f9f007ea1105ee00
1204e4f5c9e81409
faf0fc0bdbeff2fc
10ed0bf4000709f5
e10015e1f0f8bef2
0000ed15b9f7f6f5
0c04fcf406190c02
f10919120800f80b
130b04fff6fac7f7
f2ee0611ea07faed
ff120c05f30a0c04
0204e2f8060001ef
0cfe0101040b07ed
fbfcfaff3cf2fa09
f209fcfbf814f1fd
f90f04effc0d0208
03f4f0180004130a
eaf40c1327f5f4ef
0efffefef6ea0fff
f80900fa040cf008
fc06fbf2f90bf111
eaf0f0f2350ff2ef
fefafd01fbf0fef6
f203dd0a0cfaedf9
fdf6f9120f09230a
0301f005eaedfeff
1301ff00ee0cf203
fdddf50bff0af80b
fb0cf300f6f2da0c
110a0af5e509f402
0e081200f8ffeb03
07ebecf7f3f9f2f2
f9f50af908fa21ff
f6ffeafcd0fcf8fb
02f40707db22f2fc
08e506f4f90efafc
fff50ef7f4f3c2eb
f1fafbf2bdfbfb04
08050e050c190bfc
fffef6f00201ff02
ec070209ecfe38e4
0801fff13101fd08
f9f70309f2110200
00f8050bfbf80306
0c01f607f307f1ee
f3fbf7faedfcfb05
fdf303fd0bf1ff07
f713f5fafff9ff12
08f20304f8100116
edf104ee1e0108fe
13fa0df5fc0a0a05
fa09f50601f302ef
13f7e4ec0806f10d
f1040de1460d01f9
f208ef03f8f50cf1
08f309fc05fd070b
f8f2f1fe00fad30f
0404f108eee8f706
15eb07f5f1091105
040ce8f0fef408f4
e8fcffe9ea030b0f
1202ea0feef10601
05e9fc0ae400ff05
f9f90e1700fdf8f1
e60b020aef07ecf8
0401effcadf0fbf9
f7ef0303f9eced07
faea21f3f7120ae6
0cfe00fff7fde6e7
0af9f5e6c3030bf4
16fcfc0805000807
040c0614fbf803ef
07f5f4130407f00a
0b01fc07c7fc0aff
f8f90df1ea06eaf8
f41f101404fefa0f
f4f502f3f4fd1102
edfbfa0a1c03ecfa
0805f7fc1d0211ef
010fee0d0ffa03fe
120903fb02fef0f4
fc0600004d170afb
040615f3fdeb10f1
f611fd0003f1ee0c
0bfe02fffc013301
fa0014101a12f505
f41af1fd1beafafc
ee10060200f5f905
0cf50916080bf3ff
05ffece592ff0301
09f4fb071210f9fa
0a00180706f407f7
f20b0f08ecfbd113
00f6180c09fdf1fd
010605fa0df9ecf9
f2fd070c080007f3
eff4f602ee133900
ee000105060afdef
fc1114f4fdfdf002
f9f8fe020b02f203
16fdf70c080e11f5
fbfb09fe05fb0009
edfb1003f0fff7f8
ff05f7eb04fff9fb
eb040006fa094ef6
e9f8030fc7020101
f91016f3fd01ffee
f1f3ddfdf8f8f306
0705050d0502f50b
05fc0af120f9fdf6
fdf8fef60af60208
0910f90c0d0ef205
fc09ef120c0621f2
fb0413e90e0bf30d
f7f0f808fd05e6f8
f5e8e1f8f902fcff
f8eeffeafc05dcfe
f904df0ae1f0f4f4
0ee1fdf801f20dfe
fa09e2faee09f8fd
fe190de50406cada
f70bed01dbf8000e
f8020a08ec09f902
0dfefe0e040afefb
0b0e0a0ffb05eb03
06f8f115cff7f3f2
fbfdfbff000b0e02
f2fae9040afdf305
f003f7fcfe09dcf8
03fcf8f1a9fffe0f
020105f801f6f5f8
0df1ef0cf90200ef
f4fd04faf4f7d7e5
