f9f8f500060907fb
081011fa07f6edf4
08090cfe00fb01fa
09f404fc0f0e17da
0bf6edf71704eef7
05f2f5fafe0ef1f3
fa0c0d0c05090317
f5f10a040df6e9f4
f904f1ea15f5fefa
f513fe05faebeff6
f4fffe05fd05f306
f8f2fcf901fbf818
ecf5fc00050df8f4
01000601f60afe01
03e2e4fd0601fcf6
fdf8ff0c100b19d2
f704f4eed609fd08
f71207fbf518f1f5
f90501fb001a00f3
eff8eefcfb050aed
f406ff05f801fb07
fef206f8fb0ffc03
040d190bf7f4fd0d
0e10f7f20309eefe
effbeafb11f20ff7
03f6fbff03ff1700
0bf0080bfd0800fa
e80f0b05eff72800
04f7fde6dc0ff9fc
06f2fafa0eebfbfa
feef0b0a02f3f810
0dfff917fbff04fe
12f7fff4bdea1001
03f90901e2e613fd
03f116f1f4fa05fc
06f1f901eef5161a
0404ef0233060202
130cf7f51803fd02
f5e202f002f6f607
05e901ec08ffe911
f9fb0afff1fbeffa
0a06140706fb03ff
09e70cfd02110217
04fbf2ecfcfe02fe
e9fe0e150105000b
0f0ef9fd0afaf5f4
f8f0e4130f0e03f4
09f007fff50ee2d9
f1000f04ceef00ee
fc0709f31508f9f9
eef3e9f8fc15f608
f6f307fd060a30ec
f507ff00ffe200fd
fdfe0304dde7f404
fee71b02f60af7ef
e80ffbe7f3fa1315
0d0c01f547fe14f1
f8f4fe0ed1da0d09
fc011907fdf00105
08fafafcf606d808
eef5fcef23e5fc01
070504f7ea140003
0b0cfdfdfefa0a0b
fbfd050109f4ede2
0607fafbb9f8fefa
f9fd0505e8f40908
fd101e08ff0e05f8
fd0cee13fef6f214
ef07f7fef60f06f7
f811fef71a1809f6
f913fa0b0900fa06
f5f0011a090722ee
f701ecec0efbfb03
1b0bf601f9f8ecff
ffdbeb0a0f140708
1103eef9f703f9ea
f0f4f3eccffcfa09
090211ee0221e6ef
02e70e17fefffffe
f3f2fd050b05dd05
ee0701001704eef1
0d0efbf80f22f505
fbe31413f915ff04
f2fcea160fffc8f9
08031902330800fa
f9000cf800e80eff
0a0af1f207060ce4
1b05ecf80c05f1f8
0afd0afee8f40d05
fa08f908f9ed08f3
0b0f161c00effa0d
06ecf11c020100f4
fdfdf907fafcf5f3
0ef301f6e9f8e800
0a07ec050112f1f4
05f010ff030709df
020008ea110bfcf9
fc0aff02e2061107
f501f7e9f90cf9ff
fe00f906080be00b
fdfc0f1a40f4f8f7
0d060df9f823f2fc
f907effd0610f715
15f70aed0d0703fb
f804f2e4e102fff6
0c0001f7e1eb05f1
030fda070313f3f8
eaeef1ef09f4e503
f7080f12dbf3fbf7
fdf40a000f0bfcfa
04fd1e00020fff10
0aff0e0c0d0018e8
f604f9f3dcfe010f
ee00fe0407100a06
080cf9f4f3f1f5e2
fffafa0af5f8def0
f304f4f0e1f3fa01
09060d030f18faf7
f7f607e907f106f8
fafc08f508fa22eb
08fff0f2b5f6eff0
0cf6fcf4e4f90500
02ea08040207fe1b
f406f2090c06e6e8
06fff2f5f5e70cfe
eeede608efecfe06
ff1213f9f7f40bfc
0002f5f9fc00f8f3
f9f416fcc3faf6fa
00f309f20406fbf4
fbe5eaef0a09f4f3
fa03e9ed0614d2f8
1103ff022709fff7
090ff7fe1ef8fff8
f9fb120cfdfbf900
16f8ef040f03daea
02fa11f02a090207
0701f9fd03f5fb0b
fce8e7f00af40511
06fa0b24fcfa4506
f104101de40905fb
fc05090aea0afe08
01060f010cfaf0ff
fdfdf20206070d09
ee00201b1110f9f5
0e1a110310fcea02
fbf5ea0107000208
1cfeef121204fbf6
09fa040b08fefe04
02f6fdf6f3f715fb
fc05fcf0050709f5
e91200f2f7fcc9ef
0f05f906e8ee0510
f8f9060bdb000005
0ff112eaf4fbfbf8
f206f60c04f8e101
0cf9f6f8dbfdf2f4
07f404fffd11030a
f2e7e40501f6f2f8
0dfa0f0bfb02fdeb
1905faddfbe7080e
05e7f6fbe61512ff
fd1108fff8f900ff
0002ee0500f7b4f0
f30912e7baf8f6ff
1a0c0101fe16faf4
f209fa08061301fb
f6f907fbf80003f7
f506040f4501fdf0
f9fb00fa0cf605fc
03efdcf8fd0efeff
13fe07f202fbfaf3
fcff1a1716fcf20a
f90f1200ee13f906
07dd17f512fcfb0a
f60afd080b001aff
f6ff07f5260ef9f9
0413070529080ef3
f7feee080c01f2fe
0705feecfe093603
0206ed0bcbf005f4
f7e70c09ece510fe
0212fe0af9f4fc0b
061014e0f9fe03f5
0805fe059ffa120e
edfef4fcd9f6f6fd
fb0313f4fa030c05
f4f913fafa04261c
0804f019a8f3fcfc
03ee0706e4eefb00
0c03f50301f80a06
f2fa0cfffdfad9f2
05fe1313450705fe
09f2fef602101209
f2080afefeff0308
ebfff711f6fd3404
e4fceb113f1602ec
060501061507f802
07f1ff1408f30207
190a00fafc06dd04
04f60213e108f202
04fe15f2fff503f4
f9f901110a0afdf5
ff07edf0f9ff09e7
f4fd1f1c3706fd06
fa0c01f4200ddffb
fed9f5fc00060105
010407fb050019e4
eef3070d2efa03ef
19fe0ffef303fdf4
ff06fa010f14f114
fdfcfcea0dff35dd
09f4f3e8f7effc06
fdfbf905f9e306fe
f6f5ede9f8eefbf1
ee09ebe602013803
07faf4e5f4ebfaf1
16eaf900ff0ffcfd
fef4ef0b08f0f41d
f1ecf016fefdbbf5
f2f201ecf603f3fe
0b0014ee14f6fc05
f9eafdf60814f800
f50b06fd08fd07e7
fe0200ed6a1101f4
f2fc08f6e410fdf4
f51b14f502fcfa06
07020915fd02d8f6
e80005121cf8f705
fbf106070ffdf903
f4f809f702130001
0203f606fe0c2706
0cf300fcf9fefff1
f9050202f5130102
f7fcfc04f8fbfef8
f00701f0f007e3f4
fa04f7fcf0fa0900
f6fd0606040dff04
0009f50c04f8fcf2
16f7f90d00fe3103
03fdf11b83f70c03
fa0001f7ea02f80e
fffc1407f9f3fff9
e51412e603042313
f903ec0ef2e901fc
effef7f6e6f30ef8
fbfef712f6faf70a
ff130c0204fe3108
f401f01916fe0a09
03f10b04f8180c07
f8e911160b0aff04
fcf40bf5effdfced
0107ea15b5ec08fb
02edf70cdae6f603
f91af3ed000704ef
fa0f010006f8f703
11050d17dd01eff9
020501f5edfbf9ff
f6ffec14fb07f00b
f2f5f814fa05c312
f0060203fb0508f0
f212ffffee0b120a
fdfc1b1afbfcf4f8
08f9fe080509e0f5
ee05000e64faf2f9
f216fdfe12f90509
fefae3f0001102f8
22f506ee0ef91bf9
f70403f8cf010c05
fef106fc0a0d02ff
fbeeeb040a120609
01040af0f2fccce5
f6f80d204df9faf4
f70e0cf52bf31001
f0e6dcf1fff70001
120af3f903fb52fe
09fce60516030bfd
fd0af2070715f90b
03edda0af305fb00
e8fd0214f9f0d3f2
ef07ec0c2505f800
06faf90604fc0308
05ff1e04fcf9050f
f9f5f10ff6ff2c10
000006e9c608030a
fcff00f4f0f906fd
fb0612f1010f0010
f30d000ef106e1f0
0b0306f2d807f40a
fef01004120cfc07
01f8eaeef4f90302
f806f5fa0af21bfa
06fa13f90df10ef4
fdf1f9f8f80ef709
f7efe7f2f912f5fa
04f7f605eefd1b16
060215e51bf20b00
0401f608f7f6f001
f4f5f70d080b030f
fb00f4f6f2ff03f4
0a0107ffb5f303f9
08fdf8f8e9f1f1f6
f1f201f00607f203
f900fcf0fafedf06
f5f9030fae040901
fffa000118040905
f107fced01f6f9f6
15f6ed09ff0910fb
effdeefbb8fd0807
0aecf00cdf07f005
0c0a130df1fbf809
e909fa03fbf1d707
1600040c9bfaff0c
05fcfbffdb11f60a
0b14080a01f8050d
06f90901e7fd2ffd
fd00fc16b9ec0a09
feee0f02fc0708fa
0eefedfcfcfe02ef
f8f8f6fafffc08f3
11f4eedbe7f50605
f6f606f6f90d0804
f703ef100203f903
f6f9fbeffa07de0a
01fe07edc1f6f9ed
fd0af802f8000af2
00f70400fc07050f
0a03f8f100fcf9eb
fdfb0013b603fcfe
0ff8f9f7111209f5
0009f503f8fc03f5
f805f3fa000619fc
fbff1df703f9eaf5
1306fa0617f305f4
06fc06120a05fdf2
ff0706ebf710f7fa
edf304192408fe04
0b0a13f40cf90701
fb0008fd050501f5
fbf8020f020a30fe
0ff90401fbf6f70d
09f8fe07ef0ffb03
f912e20bf803f602
0307fdf30409fb05
f5fceaec2fed0bfc
02ebf70bf51b0c0b
faeffa13fcfc03fb
05f6fe05fe02e20a
fffb07eeddf606f1
fafc06f8011af5fc
ece6ff0b020402f1
0efbeeecf80a2fec
0702f509f50302fb
01fcf7ff111f1203
f204effffb070b0b
0c04ebfa1107feea
fbffff110e00fbf7
1306fef40f0ffef4
f4ebe40203fbf3eb
fbfcf7fdfd0dedf0
0209f70dfc06f10a
05f605fb000df3f3
f5e90915fa0aff10
08f7f414ef0b0d22
00ffffec0efa0f02
07fa0503fbfa0402
0802ebfaf7060800
0706fa05f00909e6
08f8040bcdfa0a09
ffecf308d0050ffb
fbe1e61003030308
f60904f5e6ef120c
f705ebeffff9f90a
09f5f608fb1a1609
f9010f14f7040107
0a1805f3effeeb10
fc0deeebd902040d
0af905f806240cfe
00f9fb19fcfaf4fe
0ff80a10f1f9e90f
030bf5f180f30afb
0af20506d6170507
0df00904fa10f8f2
fdf60ee3e7fbe4fd
