f5fbef13eff8f5f5
f8010707f205fe04
f80efaf4060ff611
faee08f1f802ef12
0307f2f9a40004ea
14010b00070316fb
fce306060600fa11
ec020f1d02f8bd0b
1902f4dffef8faf2
06f9fa0ae8e40e07
08fa1c0ffaf8040f
f1f7f900ecfee90e
f9f2e9f8cb0cec09
020cfaf2df00e4ef
f30ee007ff0af115
05ecea0a0bfc20f3
1109fa01eafbfeff
fb01fffe00f8f807
fc101a0c0408fb03
07100cf1f2072b16
fe0af1f65bfaf7fd
0f0ffdfee7ef0c0b
f1eddbf5f4fa0707
f3f6f5e805012add
f6f502f8f9020efa
080afd0700f6f509
fcf8e008020802ee
1105eff508f906e1
0b06ebe9a8f60503
0101f107fe00fd03
03eff200f60404f3
fffbf8fafaf61b0a
05fcf8f2f200f606
f4e9fff7d21008fa
f3fefb08fe0109ec
fb03fee701f91ae8
09fbed04dd0c04f9
08f50305ee02ecfa
011a1501fefef504
f7f1fa0f0603f605
0409020b37fe01fd
03f40f04f30df8f8
fee9f50efe060009
fffef4f7fd081023
0203ecfebd09f905
0808f6f3f0160bf9
f107e0f8f7f4f8f7
eaf9f2f4f60a1af6
f007f1f3af10f301
ff070efdfafb04f8
09fdff09f4fbf8f8
0205f80ef5fa0134
0bff1112f001000a
06060a06ff02e9ff
fb01eaeeff11f6e8
fcfaf8f500094209
f4090508f20301f5
f606110a09ede308
fae806ed081507fa
030304dff8fc26d4
0c07eb01c60a08fe
faf1f40314e901fa
0af008f303f6f908
f3fe0608fd083302
fffb030203fe11fd
0211fe050b0703f4
fcfb07fefd09fe00
0203fb0e0d0e1500
0bffeff410160702
08f8f2fde9fafaf4
f801150d0d11ff0c
10fc04d909051020
f0fc1002b8f8ecf7
0313f9faea15f303
f30115fbfaf9fa1c
f4f2fc17020cfff7
08020811b707eaf5
16f3fbfcea0bf107
f9f506110200f201
0e03f713f706b305
1409fdfa2402ecf0
10fff6f3000d0f06
0d0623fe07f7fb12
06070617f3f70727
fafe00fe3d0302ff
0500070e13fa0b02
0afd180bf6f706f6
f70706e704ffedf9
fffe0feefcf41008
0f07fafa07f909f1
07f5df18fb1b0913
0bf50c1cfe051513
f9f80f06c10a04fd
07f4fcfeecf1f3f8
02f0e6000014fff8
fe07091bf600cf0d
0805f8ff9eed1a0d
fff60afeda1c1203
0504fa0902060b06
fff20cf4f5ffad15
fc030eed20ffff02
fa0212fa1510ebfd
f9fc1916050e0016
f8f406f90104ed12
050318003c04f8f7
0514fc010710e800
f7f7ddf70100f81f
1606091e0701331b
fa00f8f2e70a03f7
09010905f01dfef5
f2e5fc0c0706f8fe
0dfafa09f4fd1509
0bfe12fe160b0905
09fdf1faf2fbf502
02e0e8fe02eff803
f80bf9f2fef445e5
f108fdf641f0ef06
eeff17fb0805f3f5
f007e500fd080612
0cfb0303000a2106
0303f81cc10006fb
fc050ffc1703fcf7
03f7da0bfe0cf9f8
090803fe0c08e3de
1409ebf115eb050f
ffed07f90615fcfc
fa0500e7fef80b0d
ef08f403eff4eafd
0bf3e9fcf714ee07
0c08fef4fa071205
0a0b0b040408f50d
ff06fef713fedfed
fff9f801ebfcf906
05f719f919f40803
f9ec15000afefa0f
0bfefd0f0e092007
160811fecfed0901
ffe6fafefb11ec0a
05e7fa08f611fd14
f2090b0b03ff1808
03fe07e6370603ff
06fe01f20b04e4ee
fd0b080c07fffc12
0bf9eaf91301d616
fdf50eec29fb070d
03070d0114ec0f03
f92203150cfdf5f4
eff6fa0a0c0e171b
09f403f7c7f808ef
fcfe0401fb10f2fd
feeaf1e601f9f505
0af00aeaf4082208
080af6f8fcfe0803
0a0f11f9160005fa
02fee5e9f7fffafe
1103f5f304fa320d
020ae30fc5f50cf0
f5f8f6fd00fcf4fe
ff0d1a04fbfef5fa
eaf503e60001e1e3
1000fae8f6ecf7f8
0dfb09fcf4030ef6
f6f9ef0d0504ff05
e6090100e8f9bb10
fffbe9f334f501f6
0507fc01fd170cf9
faf0f2f9f90df9fb
effe0106030de706
eff40be84d0502fd
040dfa00ef12fbf1
f50c13f8f80bf80b
06eae80e0af5faf1
01fcf10abbfdf705
f108fef3fcf90a05
05f7e7f1f6080302
0dfeef17ff0ae60a
13020205151003fc
07fb1007efed0bfa
f92001f5fc0b02fe
0af20b00fffcf129
02fdee12c209f803
fbec08fcfbf8110a
f900e60bfbfef8fb
fbf9f1dcf1ff44df
fc00f3039cf80b0e
fd0602081dfb1104
060515100b06f8fd
ed010105f0013803
0600f1ed17000105
fbfc02021b15f907
fe040c07ff0bf4f9
0705fa02f7001402
ff06f9f350f9fdfd
f4ff01f9e3edf9f7
03f1eff3fcf905e6
18f401f3fafd2e16
0dfdf5ff10fb0cf4
11090c0a0c06f6f5
03141d13fe10f504
07fcf5000a07f0fe
fbf714f8e718fdfa
030c19fa1bf1fc04
f2090ef903fa0111
fe02031b0cfdfd05
f8ff0000fa09fdf0
0b0716fc13f3f5fd
f40ddbea0302f301
12fd0417f9ff1413
00f5fe05191507fb
07f3080412e60101
f7eaf50d06fbfbfb
07fbf30603fd020a
edfa10ed37e90c10
f6f90800e6fcfb01
0115f4ee000b0800
fb0302090707db08
01f70909ef07fded
0e1101fb0bf203fc
f800ff0703f9f7fb
00eef51704076a10
06fcfbee1405fff7
fcf713f111fbf0fb
0302fa130805020c
09f8ff150ff6cbf6
0904faf2bdf50ef7
1cf9f90efbf9fcfd
08f30bfd0216ff15
0900f408fdfea41a
fff60801dc070309
0408f9f11506f000
f5fde5f50af3fe07
fef8edf710fcb706
03fa11eb4f05f60a
ff030cfd15060400
ff1007eefcf70617
10f6041506fe47fe
ebfefb0b3bf9faf3
f50a13fe0307f5ff
f50803f5f60d00f7
06f606f60d0518f5
f70aed02320409fb
f9f400f3f80e0efe
06e5f2f6f609f603
05fbf2e1faf8e0e4
f9f6f016c8fdf3f2
fff30f030deefcf1
06f8d604fe09fee6
08f9fe10040afcf7
e6040b14f3100407
021e0a040105e9fa
f5f6e3f40801fc09
27ecef0f0cf90a02
00fdfbf39f04fc10
f6e9f20bfaf1eefa
06f203f2030b05fb
de0906fef403f1f9
f2f602fcfd0df7f2
01f6060aef02f1f9
f80207fdfef9fe13
f5fe0009fdfcbff1
fcf902040211fb0c
ff0d1af3fd08f2ff
fbf322f208f5fbeb
0ff2f2fc0f0809e2
0403f302fb0a01ff
ff000ef8fe14ecf7
ff052213f201fef5
e70ef7000201f323
fdfcfd1105fdf909
f0fd0ef4fc130df9
fe0d1a02fc11fd0a
f8f6eb03fb06caf5
18020c0637fe04ff
00070cf9fa190402
fc070d0401fdf6f4
ff0e10eaf2ffcafe
1407f6f81101f901
05030604e2f6ff0f
0dede0edf20e040b
08eff3fcf403e2eb
0108081af20009e9
11f40105ecf815fb
f604e60003fffbf4
fbf8f9e6fafdf2fa
f7fcfe0ac8fd11f2
ffe71105f909ec03
04effa0e030bf6fe
fb06fbedf607cfdf
0602ed18ccf21001
01edf3f8f90bff01
fbf1fdfaf6fc0a10
03fd010101f5e5f4
eefaf20b050902fa
f3f20905070b08f9
09f518f002f8040b
0e0d0ef90709d8f9
fbf5fcfadaf3f805
f1f50c07e7060bf5
fefa0a0af8fd05f9
15f001f60ef7ee02
fdfaee05b908fe07
07f215f401150cfc
f30005f4fa0ff70f
07f804f503050c0d
f60404f4ed050704
ef050301f2f61404
fe1910ecf60d05fa
1114faf60309defe
f4fc0be9bdf3f603
f7030701dafe0a0d
0406f60d01f7efff
05f6f0e6f8f416e7
10fc071c2803070e
f60914f81e13fd0d
01f509f209faf50b
fc010cfcfa0b50e5
fc0802ef2412f9f7
f60cfaf7f8f109f4
00f616f505f5f9f1
fff5f8f6fff612e2
06f906ebe70406f8
09edfb0009f1e5fe
fffc0deff81204f5
f203f0ed0909c5fc
13000415a0fb0bfa
f100f8f70614f707
fe0b1a14f714fc17
f7fcfb07f80ae3ec
00f701f1e0f403f3
03080604ff01faf5
0003f5f3fcf6050d
110908f0fff9d0f6
0af814f005f4ebf4
09f21000df120dfa
fb0e04080005f9fd
13f500081004ba07
f9050cfa6309fa05
f4fffff7fff70e03
f9041a0704020215
08090ceb12031201
0af8f2fa07020dfd
f3020609e30ef10e
fffbfaeef30e06f0
010307ef000908ea
0bf81814ef10fe07
f60c02f823f807fc
f6e90c0d0c0dfefc
18f2ee04f508470f
08f8edecdff6f70c
f60d09f604110b04
effae3f500fbfff7
0ef6071511f6c115
08f80705d7fbfb0c
00fe05fadc22f405
f4db0feef501f818
0505fffbfd00e7ea
07fe0e14c504fff4
f70afb040c12e9ef
fcf5faf3fefc0213
f2f90200f70b03eb
f3f6ff054801f0fb
f00b08f8eaf702f2
03f5060e0bfdef00
fc04000b0900f924
f6fb060ad6f8fffe
f0f207001109f9fc
090ffb050504fefd
04fc0309f704f008
110003e2f90403f3
f6fd03fbf00b12f7
faf6fbf4faf703e9
020903f6f7f9e2db
ff0af9ed06f2f2ff
fafa04f3fa190b01
f2fe02f1f6fdf3fd
eef2effcf5f73ae1
05fa0c0bfef2f705
0afa13fbe3e607fa
06170aeffe12ebf1
1d01e9070b061c04
17f8f7f7e9ec1104
06e9fb00e8140208
09fe09f5fa0007f1
fcf4f1e5fdf6f708
