19e0fddbeef40104
0a0610fb0c051efa
00edfd0601f4f815
ee03011efa0bfbff
10f20df70afff907
0cf3f41709f8fb08
07fdeff2fcfd14fe
0f0aec17f30cf9db
e5f2051ff207f6ee
ddfaf5efde031f11
fe1af712f3f7fe05
e5f5f319f400ffeb
07f90c29f10400fe
06f0000515faea0f
f008f8fff9fd0f03
17000506fc101003
f00709edf1ff06ec
e8090ee3f10017e5
18f2fc0df9fa06f3
1ee80c070304f2fd
11fdfcebf105010b
fb04faef13010a11
f3f7f9f4f8fff809
22e8070e1d212011
1423f624ff101010
0b0b050af2fb05e6
1b021208e60c0c03
30f4fdeefe1e0600
fee303f8fe05fcf4
eb0106fa0105dc02
fff104f5f0f91ae6
e1100304fe021c07
fc0d051afe1105ef
e8ef11fbeef7e6ed
f819f7100403f805
2bfcef17fe002ae9
fb19fbf80200fff1
0cfae9eaf0e90803
f7faf9070c0e0ee8
caecfd080d0cde06
f8e70d1dfcfff80a
20f2010516f00c10
caf0f2120ff00f12
24e8f928070b0fec
1af6020607040eef
04000ee5f0121a0c
2017f71ef10d08fa
13f80b04fe031016
2af1f8d10a000200
e901fdfb1404e9f7
f5daf2f5ea0a000e
2a1602fe06fafa23
0fee0a05fbf30a00
fbfc05191700e506
2919f8edfe01fb08
e205f0ef0e101201
eef8fceb03fbf818
1df1fdf5effa1100
f107060903f518dc
f20a0a160715fbe3
df07ed17f7f500ed
0b0d0af2100e00fc
09e903f4f7f6e919
0a080ef2f3fcfefc
05fdfcfcf400fa01
ed06f0e01b06e705
f8fcfcfc040f07fc
e600fefdf1fff8ef
e300fe0df415f5e5
0a02050511041efb
d40504e70cfef100
f2f7f517f4f5f708
03ff03080014fb0c
0400f6f7150e0301
ecf40916f0fe0600
de0a0deb1108010c
f9fdf7cff613f8f7
e300efdaeb0f03f0
e1ca1304fff61e11
22edf3efff24eaf7
fce40900fbfff509
15fa010c0823e508
e10911e9fef80fde
beedf8f90efe1feb
04fc03fcf606f90a
fa021308ed08fefd
dcfef803f105f803
e7f9f1e8f4120d11
0ee4fc1b0608f808
03f6f9f0ff12e4ec
e906041407fb19f1
2df30506ef061703
f3feff04f90efb15
18f2f611fa06120d
04f6f3f70cf7f505
33f102f406f002ee
dafd080ffa0b04f5
07f70df90701f30f
fc00f6f109010600
e9f702f9fcfe11e1
020cfc36f2f70305
15f810e2f00407f1
fb0200f8f101e4ed
e10400f1f9f91afd
d3e4f82a0408f1f4
f8010c20eafa20ed
191200fcf0050622
0f050119f1080ae4
10f6f0cf031505e2
f9f910f8061ae513
e0e003e30ae9fbef
ed07f10efc16f1ea
fa04f2f5f014f1ef
09ff0a06f116fbfb
140911fde30a17e4
f5e6fbe40112f4eb
21f9fafd0711f607
08f705090a051308
1a15f80bf7f516e9
edf3f90dfbee0b13
1bfa09180109fc08
1505e7e101f5f00a
d4d90708fbf40ae5
daea0206000d16e4
0c20f8230bf904e5
fd01fe0bfced2208
18ee03ecfe06ff03
fe0deff6030e18f5
d805e915fe06080f
e5f9fe00f7ec0b08
12fb00f9040b0deb
d012fb160115e4ec
e607f2fc110efa13
eff608ff1cfbf200
00060210f90608d8
d308f70e0a0e0f12
f9eaf703ee0bf208
0afefeef0501f6f4
090bfcf7fd02f714
1a0cf91100f11cf1
d9000bfcfd10f7ff
0406f30114fef316
ee02ffe602f619d9
e3fc04f8010518fa
f6f30bcb0013f4ec
fef70ad9ebf10ce9
fbe8fd09f2f01309
eb05070c10f3fb12
f5e8eac6fd18ff0d
e4f6ece90c10dbfe
e1ea10f502faf5d5
1aecec0a1e1ffc0b
fb2afb00130e031a
1512f603040524fe
291f08f8e909f20b
10f8fafcfc00e701
10e1faf302ffef0d
14fffb05fe1bf60c
f807f80ceaff0aef
14fef3f7f4010af2
0701fbfafa0500fd
ebeef9120815f1ef
f60c01f1f8f30107
fc02f415130325eb
09ef07e8f2f3fbf6
0dfc05ee0511f108
fce505f7faf50df7
1201fe06f0f4e6e5
eb17ede20805ff08
20fd06f0ff011522
0ee8f3e711f2f6db
e600ef0e080317e7
18dff1e7f4100d07
01fc06e902f0f1e8
0fdf0911ff08fc0c
cd19f9f0eef91611
1bd9fcd307fb0400
120713dd190f02fb
310c06f3faf40d04
24fc0af5ff09f6fd
1ef8f01ef000f614
1bf7f4080dfd00fd
0edaf809f80113e2
4709000a13f7edeb
ebfbedec040f070d
1805f3e20d1105f2
08ea13fcf3f71600
cc0202f70a061c0f
f51515e3f205ff0c
db0b16010a0eedf9
342efa01fe10fa32
ec130aeb04ebf30d
fb1003f0f9f30101
0d020500f30016f7
e60cf802ee121202
310af503faf503e5
e9130af1e807f4ee
f4020e0600f7fffd
1904fae409f9f1ff
e3fff30b0b0bedf8
17e2e8ddfbfe0813
faf902ebfa11d401
fd05fdfc05fb0ff1
ecf401f70d1905f2
1605eb0efa000109
e9ee10ece419e6f1
00de0ffc00fd1606
ff0004ff1406fb02
e2fdf1fcf310ff01
f3eeef09f9051c03
d2c904e0f5031cf2
adf006e5161f26e7
05fe0315edfe0613
dff105fdea02ede9
19110debf500061b
0df40404120a21f8
13f3f6ec05fbf003
02faf3f204fef4eb
fff60cfffdf91818
16e7f70b0914f6f4
09e5f806f90206fa
f2f5fa0ef701d513
dad502fcfaf613fd
0400041efdeefefb
11f2fb19060bfb02
faf6eff2f3fcefee
00cbfb0cf3f90200
bfe8e8fe1c1d22d6
e71409fdf009f106
1007f90cdfedf6ff
0f1408efeceee31c
29f6030f0af9f2f2
f4f41332fcf90605
0901f80b10efe4f0
fe11ff1f0b0d0b07
e2140c0af003e117
e0e906edf7f2f2ed
f3fd0b06ecfa130f
0d040a08fae714ed
c4f9050607121600
18df0618f00b00ff
07fb07ddfa1502e3
10ed15edf502200c
faf601eb020a1afa
0304f619f50b040b
f4fefaf50809d2ff
e103fef4fdfb1ae6
29020af7fc0b0fed
ef0c0801f2f1f609
0dff01f11701fd12
fb0600fb00ebfe18
08e7ef0102f009cd
08150d12fff606fa
0405fefa0af10bfa
10eaf902020001ff
3e0107e20af70115
f7f6f5fcf9ecf100
fff305e5ea04fe0c
f3defff4fe0afbfa
01fdfb020809e8e1
f7e3150a07f10a13
12faff10ff16ecfd
0308f5fc00f1fc0b
1ffa0911f8fcf4ec
fdfc00170df704f7
130cfa1902ef19ea
e9faeb18fc08feff
1e18060604040e17
e90dea01f80efffd
07f1f7ec0802f8f1
16e904e7130118d3
21fbf009fbed05d4
e9e6ee06f2fffde6
160910d4ebed0f06
d8ed150ff0000f17
d4f300f30019feff
eff20ac60a0708fe
fcf20901ed041a02
1c0506ecedfd1403
00e90202000002e3
1b10092f0c060bfe
f0fef90b061704dd
3110fa1dfa050626
151905e50005f61f
0e0606dde4feeeeb
daf201ea0014f4f1
1bfa0bfe04f7f715
e1e5061104f505fc
f90205f3011206ea
1800080cee03100b
ff0ff80af9001202
f702f3f8001429e6
f4110bfa000309f5
edf4f5e6f1fee9fa
f8cd050717fbfdf2
e30f060a0bf5ebed
f2f60d07fd070309
e8f100e8ff0118f7
daf3ed12f5f31004
e005ef07fd1009e6
12d80b0af9150aef
1201fc0107001aee
0cfe0c05fc03f7ee
030202f3fffc01e6
ece40704f805ff06
ef08f9f10efee907
01fcfde8f2f6f704
17fa0007090b1204
fcf208c803f4040f
fb010ee002081804
e7e5120d03010c13
0dfef9f8f7ff090e
0a01f706fcfbf2f7
e4f40ae9f1131201
f1ec03feeaf9f8f2
d9f20a07fd031501
1f120f14f5f9ff0a
f710fdf9f804fa09
0d03f019000d1027
382108e604ece42d
ff020e0500060400
f40c09e9180ce80c
faf30a0afe0c13f6
080af90ff1f2f200
14f505f4fff3fa08
d8011df60ff923f5
05eeff0bf7f7f621
0ff910f709f2fe13
e8e3fdf8ea00fd10
ddef05ee0d0ffd0c
1b0102e7060501e0
d0f50be9fb120cdc
e9fe00f5e6faf503
dff5f7e70d0622f6
10e5fe06f2ff06fd
be0408e300110cf2
02f3fbedfa01f4f3
eef10d05ef160efc
070e1009fcfcf8fe
b3fefa06130d0d04
e70ef91ef700f8fb
fcf7fa00e9f404ef
21030effea04fc10
ac0dfd11fcfd05fb
e901f31aff07ff01
fe070409f815eafe
edf1f9f1f0eef50c
bdf303f0120800f4
0be5fa04060d0209
ec0bee0004fc0809
eb00f408f7fdf7df
3102f31814f0100b
fefa0817fa03f30d
06f7fb0bef09dcfd
17f7fa090bfb0505
a5f6f8f50211e9db
101ff5ebfe10f5fe
fc09fdedfbf004f3
eceafe07ef05f802
2003f7010903170e
0ee90a22020507fb
f8010de5fbfef9ec
1dedf10d0013fcf5
28020811fa05f60f
dd110a0cf40401f0
ebf4f7ebe20526fb
ec0df8ec00e7f922
c70cf7f7edeb0f04
1df1efe1f5f3f8fa
e0f310e209f3120b
25100be5f30005f2
bbf009eaf9f2e504
ede8f7dff6f5f203
02f708fc0917edf0
f2d4020f06f311e0
15ee050d12171ee6
05ff00ee0a09f80c
0b01fefc13f8ed02
d2f200f600010afd
fffc05f6ff0cfb00
16f60c140c0d000a
e101f9f6e7e51808
e2fdf417f10ef0e2
020b040b000cf40c
