0418f523fe0d03f9
fc0301ddeef8e7fb
fcc9070afffcfee6
c6eef1f702f7ebe5
fe080ef903fbfd13
21f40be814f615f2
feeced11f0f50008
16edec1c010ef9ff
f1e2f7c80c0605f8
fcfb05f616e838fc
0509fff0f50bff07
b00f1602fe0013f3
0df9f8fe0701f7fc
ea020fea0bf9f015
1de7fb110709f4f4
350ff91ef80bf8fb
26ff06e60b05030d
f1fbfff5e2f5e9ed
271cf7edf0fb0b06
d5eb060bfdf41fed
e124fc300b0401f7
18f7edfbfaeeddeb
18f20a0cf60008e1
35f3f0edeef9e911
fdfd06ea070203ec
18f5ec04080f2808
f7ed10f504ff1bf7
21fc00f606f9f1fd
0d09fa05fdf9f2f8
e8f7f1ee13fe050f
0dd4090bedf119f7
2fee03fc0b1115fe
06170c01ee00effc
eff8f911e91216f4
19f3fafe0103fe03
e9fcf9f20107f7fd
fc01f505f3f5f5fd
14f408f100eb2108
e416f607fb04f8d8
e304ed0f100efb01
e918efd4fdf50107
1308ecf406edd616
130bf8e507fff4e4
db00fd0c08f21aec
07e00be008f800fb
0a0c0d10faeee800
f41e0816ee11e9da
def91604f6001b0b
250a13eb0b0af909
e2fe14f504100ff3
f3e10301fe00ee0d
1dfb03e7fb0b19ff
30fb0d36f1f6f8f7
f003fa08fffc0d01
2c020400f0f8f90f
33f0ff130c0c11f2
e808fefc00040101
f7f7f3f60ef1e7f6
f0fafd0000f915f9
36f5fae8fe08dc15
0309ec2200f306e1
edf618e90f0f140e
1edf09f904ff042a
fbfa09f201fff518
e6e812060bf508fb
2105f11309f60b0e
d808f2ffe810f800
fd09f00606010ce1
f7fce912fc15f5f2
f408f5f3fe09f8f0
f9000efefc03110e
280df208fe11f4e8
2604ee00f31200ff
0ef201f4eb11f2f4
21f3fcfc0e0aeb10
1bf7f30004fbf2fa
f2fc01fbf414f406
f7fce7eff4f7ffe8
10e8160a04070bf6
d9fff7eb140213ed
ff07f90e0813fd14
00fcfef6fd10ed06
01f3000bf1fa18fa
3207e8140d0af7e3
0efdf0000c0305f6
f8f1f5070609120b
fddc030e0bed14f4
3001f80a101aff14
fa06ffecf71201ef
1bfcf1030c100e0b
d40d01f8f6fc0cdf
fce90204111511f7
03fbf327e804050b
050606eb04f1e6ff
0f22fb11030bf2df
240cf8edf10f190c
e100ffe50e09f200
2406e70d07f7ca1c
19d6f10108fff3df
d2f7fef708f7e6fe
fbf2ff01f70503f7
e30bff00e9ee28f9
061904f7f5fbe0f2
c21505ebea07200a
150716df0a130311
e90811fa00f1f103
e1ed0305f9f9011c
260500fdfc051cf6
e3f5edea10220200
ff01f7080e1dfa0f
d31a01e2f7f011f9
e5e808070e1105ea
f508f21c0309faf2
12fb0afff40b04fe
d9e7130905fd1ce6
f0eceef50df6effb
0c2714f0f1f400fd
0c00fb0a06f1dfee
2506f704f4f807f8
ee09ebf910faf60c
1316f6cc060d041e
22fcede80fface13
e2e7eeebf90103d9
cce6e824f0120eef
e2e214dd00f200ee
070209fce7fb080a
f4f60d10f40e0911
ccfe0af4fbf70ff1
ed1400f907000506
19f60f0d13072701
edecf60412f406e8
2bf8e9000cff0ee3
e7f7031911f30a0d
0df704010c05fc0d
00ecf2f2effefde5
d7140812fbf4e8fd
1ae907c50606fcfd
e502fb05000124ec
2c16ff18fa1910ef
f1061609fcf409f6
01ffec2a0707f401
10ef021400fce4fb
e4f70ce9f3fdfa10
3cede8fdf5f5e502
1b05f6de040502e9
e9fee70dfbfa060e
e4f7f6e6efedfdfc
040b01ff12fa1603
e01b0628f0fdf8f0
0d00f414f4f90209
09e6f606edf5ec09
12f4ea0df101e410
072515f2060b00f4
ef0402f3ea142bf9
3c16050b050807f4
eef20701effce70e
fcddf0d009fbfa03
0efefb01010ef3ed
ed0809100d0907ea
03f809f3091019df
e5f9ffd3f405fe13
30eef70d050bfc05
ebf40709ee03f6e4
7f0aebfff60ae2f4
2118fdd6fa0f04fd
220af2ed060b1bf4
fc13f205f0f6f0ec
ecf3f702ffedf0ef
faf8f708e8f9fd0f
05ff0b0dfc0aef04
d8e5f4e6f8fdf5d1
ede8e724f0ee17e9
ffe8fceff50d0504
eef7e7f311f60f02
17e6f6fef00cf4e7
0cf70be004ed04ff
e8eaf8d6011903fb
14f712edfb05d50c
09e1f7fdedff1beb
38ea0702fb070c13
e800ffdcf50af917
faf0f314fb1403f2
f2ff0be9f6fc0b00
16e9f01306faeb15
f8feeaf8f014fcef
01f0eee9ec0501ff
fc1716f5fdfb0fdc
2405fbe50ffefdf9
1a1704330606f6e4
01fb1d0bfd1c20ee
f90df206ee00ef2b
45f30ee5faf5f115
fc0df02dfffa0f16
030df41b0af5e311
e80403f50604efe8
f702faf8070af6f3
0415f1dafff5fbe6
da0af0eef7f415fd
fbf702f0f9fa1306
fef7fcfe1808f601
e705031a0208040e
1207e8fef7f6d9fa
160f090c05f4efe2
1df2eb03f50dfdec
fe00ff13fb0bfcfd
10fc09e4e708f0f2
1c16050f06ef10fd
eff6fde70cf112f7
1af9f60dfa06f712
0f0109faf70efaeb
290900ed0608f9d0
05ff00f806f30305
f6e8ea0d081302fa
020005fb081b01fd
dcde0df9fbfb11e3
fbf8f7fcfd090b08
f3f1f320f80df6e8
01f0070000f6e502
cffdf80ff0f31ae7
e5fe040c03fd13fd
0317fdeff20c0c1c
faf4f1e9140be4ec
dfddfefe0700f6e3
e6f0f015fa09e6f0
d415eae3ef0e07ff
22f50415f3edecee
05cdf1e10701eee3
18dfe819fbfd0d02
2c170822fa05fcf0
def8ea03f1011106
2a320917edf3f907
c8fffc09071bff14
fb0909120104090d
e5fb03f41c0d1f0f
d6f7f91c0108fe00
081609eaf2f1f307
f50c07c20e02f4f9
fa09f912fd0f220f
060401f705f7ef12
f50af3ee01fb1fef
f5e3f7effffffaec
eff1ee0d01181df9
e1d30b00ec06ef0c
2affffec00f5faf0
ef1be723f91406fe
28f0f1fbf004e501
0f0d07e908f9f9f6
3901fff7f0f610f1
d00fed0fed0a031a
04f2ebfee7f2ecf6
09ccf0e500ecfaf3
22fafa12060005d3
fa04fb26f2edf5f8
040f0be112e31b04
21f002110514f50a
c20f15040a0f0c0a
06ef03fdf8030000
0ff109e3eaf0e909
06daf104f3ee0610
daf6ea21f309ece1
ebef12eff1f50e01
f8f7f9ee1c13e60a
18df0115fc08f9ef
1415f8f803fb18e5
27e9fc00fe0df6fe
14fd0b1000e6fdf7
0ee1fb0cf2061a07
de1c1008010313e7
fdfdfeeaf5fe0901
07f2f5ece705fa0b
04d6f90212fceffb
0101eaf5f4ff060a
0af8ede3e90efa01
1b05fcfe04fef1ff
16ed18faef071bf8
270ef607f71a0811
e21c03fd05f9060d
ff02f108f7f309fb
01fa0bfa0cfdf70c
2e0ef6f1f107f201
28021132fe01fc13
e20fe7ee03f0eeed
2e02fa1eff10f0fa
220b0bef09100d2f
ecf708160cf3f0fb
ecfdf6f80d11f001
fce902f9edf50708
f0f9100e12f81ae2
fa14ee0e01150af1
f6f6f50f140ed5f8
0ff708e8fd060df3
5904001203fdea03
ef1bfb010bf40c14
fbf2061103f2f913
d3f5fb11f402fae6
e0f0fffffbfa180a
ce11f506ffef05fb
1df1eceffe0cec14
09f9fcf2120714e4
1bfaec10f4ecebe0
fee909f90403f8f7
f002ea00010f13ee
130e010e040b1be9
19f1f6e4040d0dde
e0dc08dafb08f8f0
fcf711ed09040cf1
08faf6e3f6fb080a
db13080f00201901
ececec0e0409fbef
fdf6eef2ef0cf307
0fe10d0a02f3fee3
3ef1fe16f8020109
20f4f81009fafa01
0ff7fafaea132af4
010cfffdfe000feb
e8fcfff402070c0d
fe15fa14f50b000e
d9fa0eff21f20cff
0cfafdff11fbfc41
101f1401f3f00e26
dceef2e912070413
13f8f9ec120edcf3
d80ff80807fbed00
f10d01fc020207f1
01f4f320f2f3fcf4
f6f7fce6f60a260a
df2102fdf9f80811
ea0f02f113161401
1402ffde0b0004f3
e2f2fb0e03130b04
27d805ea09f6f7da
0cfef11007efffe7
081c04fcfd06ef0e
e2050ae6ef05fdfe
ed140efeee00edee
cef106f2fb0a0efb
ea1907f402f7fc00
e702eff2f4fc0ef8
fee0fbf701fd08f0
bffdfe160bfcf9f0
f40df1f5f90afff2
eff8f604ea06fcf5
27e70dfafdf0061d
13eff20a17f827e4
f50d07130006fce8
0c03f707031710fb
1306f7fc05f6fdf0
edff0b05060302f7
081afe0309050b18
1b040d100203f7fc
04ed070ff7f6f6f9
00ecff1afc0306f6
df27fa300bfc0413
f2efe910ff03c903
f2f4f8e80003040d
1f01ed0ffc061b04
f0f50bda0005fdff
2401f1fff9ef0bfe
090a00f307f81bf1
f8f9f5170112ff0a
faf50fe9f805f9fc
d8f80ce5ff021bec
e0e0f9fc020bfc05
0508fae90d12f201
0105f8ccf4fcf3f7
dbfe0c18e4effa0d
f504ec0a04edf426
1c05040c08fcfe15
dd170212f10fff06
eaf90c100df32e01
26ff02fafaf5f91d
bf030507020d07f5
edf2f7e5f80bf311
100aebf70e08ecff
e80a0ef705f911f6
e81402fd06fb0ee8
d004f4cff4f80a23
0406001701faf509
030901f416f20ffd
d4080523feee09f6
22d8f2e4f206f5fc
230205da0fea1c05
f7100620fc060cfb
fd04fae8f5060411
