06f5f826f10ffaf3
0003f3dfe80219fe
dd0e06f2ff0dfd00
1efaec1904fd1601
faf10be80ff60007
25f70d10180714f2
f5e2eee902ffeaf3
0113f714fdfb0808
2106030deffb020c
080ef302f407f114
3817030e0d0f090c
001407fff1fbe806
fc1af20bf501f3f1
f8010deaf3ee0f0e
13eef7f4fd0bfe01
f814f4f6f9f7ecf7
19df051af204fb06
0df1ebf8e7100b0e
2a010a09f80908e8
b90ef3fb0e03fbe8
0d1cf529030405f3
f0060ff20aef0502
011b10ef05ff010e
120becfd03fb0510
e02203ffebfb0410
ec04f9f2e6f019f5
fbf806f102f713f8
2ff80413f80004fb
f4e80e14f4f90201
04fe01ecf912120b
eaf5fbf00500f0e4
e6f0efecf611f903
30f0ed0f00faefe7
f4fdf0fd021007f0
313ef3fe0b06ef29
01f7f3f2ff1730eb
fae4faf706f30415
f703edfee702e702
ebf10becf00502de
d8fa011809f710ff
ef1806f1f606fcea
fb0501fa09080110
cc20f7f1eefa06fc
0c05f319fef90f05
1afe12fe0eee040b
10f4f7f41efafcec
011cfd10f204f50e
0414f2ec030a05f4
29edf215f3f902f4
fbfcfa0affff12f6
161e03faf90702f1
1ceaf8110c010807
2c0d0634f2f2f50b
f106f8f707ecdbfd
1af00516f1fcfeec
def3f5f3f3fb090f
03eb0efaeff8fbf1
05f906f9ff030cf2
0a19030506fbfa16
f3fbf2f2020c0502
e20201d500fafdf5
050be4f3110ef50c
f320f6f0f2fffdd9
ebedf3f70b0e29ef
01f802f80af7060b
fbff07060cfcfbfd
e90bf7ef0c0cebe6
e8f5f8fd03000d05
0605efd30311f1fa
2602f700e9f00cfa
f526fcfbf80215fa
060af207120e1c01
f50ff3effff4f104
d700fbeaf2ece601
05160ffbeef403fd
1a0ef3ec02f91207
01ed051cf009f508
1bf1f9eeee0c100d
e3e30a1003f5f714
f800eff409f6ecf6
081af123f100efe8
03fb06f3e800fdf9
03f2f9f3fef20315
f2eefd03faf4f90f
0ef7fd05060ff3fb
07fcfa0f0a0307e9
ebebfdea05f807e1
e4f8f5ee0504f208
f41004ea010900e1
ecfe0307eb1106fa
de0bfff4030b0c1e
f4fdef110bf7fa09
fb05f6f9fffe01e9
1b0b0c0213ec0007
f2210709fd06e7e3
cb000210fdebdfeb
f71b032af7f5f901
e304f0f0e9ff0a11
070505010bf9eff1
d6ffed0e021419f7
1af907dcfbf4fee8
0702f3fa05080def
1cf5f2130903f01d
cc13ffe5fef907fa
d9f2ee00e801ff19
09fc0afc0e0f0a0b
f212110c10f3f0fc
33f2f5ec091a23de
e704ebd701ff030e
04f5ff1408f20b02
1b14f80614fe09eb
3df2fa0ee9f3dcef
f3f10e19ec14f3ee
01fde3fc0aeefcf8
f4f30501fd021a0a
fffdee130ef7ec14
1117f931f808fae9
ddf1f7f50e080d00
ef0807f6f5fdf2f5
c0f3ebffff10edf8
e404ff12fe08ff03
0b0deaf1fdec071d
f400eeeb09f0fcfd
f6e3ed25f8fbee07
15f9040605fdf3e6
fcff10ff0afef8f7
251df207070504ff
180309eafdf21107
d80ff5e2f508fb07
1f03f5f70ffbecff
faf601dff8f600d4
1ef102fd07181af5
da09ea2df6f60b15
f906f1fbf811d504
1718f5150a030de6
ee1603e6fd0c101d
f9e00f01eef0030d
f001f30cfe0b0306
1d08f0170d15f6ed
f11710f4f6f708fa
1500f214050d08f1
ef030af301edf80c
f503fd03ee0afeeb
eeecf4f6ff0bfc10
09040df10200f3fb
1107e9f6eaf7e503
0fe204f4e90607fd
e4f0fced0ff902f4
0800f70cf9feffe8
0806010aecf9240f
e3eb0af6ff08e9fc
f4f6f8ee03f40202
0cf40cdafa0e0312
dd0a02f0ee0903f4
fa050912f10518ed
37010beb05efef02
1616edf70704ef09
eef6040dfffc0dea
dde903130bf80bf7
ed0403ee070c19ee
03f00a22f80600ec
03ff0afbfafe130d
d702f2fafe000006
0c02edf40d07f90e
e100efd0f7ff0404
140b10f6070b03f8
1e0804f104f2ffff
fd06fc0e1012ebf7
f4fafa110a07fcfc
e8ff0716fef7eefd
d403f9f4000407fa
01e7fd20ff0716e5
18f004fb09090e14
1c06f7e31812d6ec
13e4050aeb0a0af3
ddf8040cf60113ec
ea02f9fefd00f6ff
f8070a02f317f600
250902fb01fd0be8
17fe02fcfa20f8ea
e705042bee0500f2
f5f7f1ee0104f7fa
00f804f4ef0504fa
180be8f20cfaf3e9
f21106eb0afb0205
fbf6faf0e9f1e7fe
f31707efffffec0d
27fff514f301f200
e8edf7dcf2070c01
04f6f514eb062eea
e638030e07fdfbfe
2ef9fef20df81a00
fbf9ff200bf2f916
e7f30905ec00f716
d3e6f0fe03f7ebfa
080df4fdfef3e5eb
1ee8edeefc00f007
e9f5f1effcf1e0ec
fef60100fbfd0701
08ec0909f8151504
e3040423fa00f8fe
15f5ef0ef100e0f4
dceb00f8f209f51e
2106ee10f6fedd18
0b06f70fef03f9e5
f2ffedf00df32903
ffe6fbf2f6f7eb14
2cfa06e9f5f906fb
d719f12e0cfefd00
02f200ea09ef0fef
04d60ee409f8e624
5810020bf80af909
e91303d7fa09f303
14fc01fafd11e2fe
06e8faf8f90415ff
e90805040dfb19f0
ede807ecfb0dfcf8
f7fffaf7f4fe1df7
e226fcee0cf810ff
17ea030d0e04fcf5
fe1c0725ecf6f1f3
100b14fffeffd90e
1a06fff0f3fa060b
00eb03f911040300
d822edf805080b0a
e6ef09f5f8f1ee08
0c11fbdc10f7ec05
f3f0f71401fbf611
23d9f5ecf503f807
ff0e05e7021604f6
3404ef08fb0c130b
cb1402f0fef52504
09fffb04ebfe0809
fcf8fd06f718f601
15e104ebff010df1
120cf0fd0d2530eb
0f0ee9f3f80a0b14
2206fcf2020b1313
0e0607e9fbf40af3
2d04050cf2faeee0
1107f1d90bfbfee9
0200030503f3efec
14e5fb0cf40201f4
d20800030eee0813
1a1ff50600f8f6ec
1d06f0000af7ecec
f9edfeecf0f60812
0eee04e801faff0a
0e0d0af10d0f0cf1
f5fe092211fedbef
f807fef30fffed15
1be2ff0308f505ef
04eaf7e00608f9f6
010e12fcf109ebfb
2506060d06150b11
cef406fe00fdfc09
ecf30405e60e010b
f7ff0a000902f107
16faffe1ff0707d7
3defe9f80ffefb03
1de90dde0ff40207
15ff0efefffbdbef
e8e7efef0207e3ef
02eff1fff2f40506
00fffa01fcef0809
15fff4ee06f6fe0f
2114f8080507fafa
160900f0eefb080c
14fe0810001009ea
01f8f202e3f30ef9
e72704f8f004f3f3
2eec06ee0005fdf7
06090bd7faf6f1f9
19efebddfa02010e
f3e11502fef11007
2bf5f8f909f8db00
f51308ffed0e0004
e40107031001f305
00f9fd0af4fefe15
4113fe030afdfffb
faf0fdedf5fbf601
030bf9da0cfffeed
0b03f610f1091400
421415eff0f4f4fd
f313fbf60a060505
06f6e8ef0e0f04fd
eb110ff1f2fb0c0d
e405f7ee060d0e07
d51e001504f8f1e6
030203ff06f1fa13
f205fdf70106060a
2bf3f8f31103f806
df09f1f5090a041c
fc00fcf00108e700
df0a00ee0209f2e6
e900f2fe10f808fe
ec0c0cd202f500f7
05fff813f2f8d817
02f300031501140b
20fefb1d10f306ee
e801f3cd09ff01e7
13f3070c150301ec
13fc0813eef2120d
2f12030df5fefee6
faf3fef5f102fbf4
f705f0ec0d200efb
fcfa0600fb05f8ff
01f6feed0200f0f6
fe12fedd010b00f6
15ff06f105f5e2f2
0b040108f4f9f10e
09ecfd0912fdfb04
e711f31bfc01faec
1406f7f0fb0f0fff
0d0ffff3f001f7fd
fb010a120902fef3
101c0a00f0000419
f113d50d14f90a09
f74405f90b060cf2
2e0e15fcee0d1203
e2100a1104f8fcf9
e9020502f60adb05
0ddd02f50c020dff
dcf4fe130e130918
14f9fdcefdf3fffb
fa08e2fc00060eeb
2015070101f201eb
100ffdeffe100b06
f009ec241006f4fc
0600e5fd09f10b05
e6e10c0af6faf906
3110f5150f080e00
f2110b04ed04fbf5
f2f304f109fb30ec
2f2302f9edffeaf7
ed07f50d04ecef11
0824effff1f7fbf9
09ef050d05f6e3ee
0de00becfefaed24
dd0e01f803fb0402
dae603ddf20a07ec
e1f6fbfcf4f12007
eb1d0be9feefef16
300ffbe60bff08fb
fffbf726070000f6
10f2ff0ef7f5f80c
ee060ceb01000a0b
ce0e08ff0505f303
e9ef0ce7ee020006
0efcf7f113eddf13
f0e200050c0307f8
21feef1dfd04140d
ddf9022f0c08fc00
0103ec0fe7f7e604
cbec02f403e7f41b
1ef6060bfa07f3fa
effaf6110e00f5e2
0af5fcfc0ffc0b00
20faf30c0a0600e6
f3f6f802f7051dfb
0115fdecfe0b070f
e5f2f3efee16fcef
d6f6fafff7f813f9
03ecfff10f260afc
ef230115eef004f2
0702eff606f9f2f3
0c1cff0f060ce729
ee0004ec09fd0be4
e01bfa0dec06f508
15f3060ef60dfdeb
18ec0bebf7fd0be9
32eff3f01003f4eb
021dfce6fa0102f1
0af8ef0b010a0b0e
1f0a0c16f40604ff
39fe03e8fa090f13
e0ed01ef110405f7
19f6000dedea0515
06d8f8eb15f016e0
0505fd1ffc0119f9
1ce3000df6f2fcfc
1c04ff0010f0f007
27cffd19f705fdd6
d30e05e1f6f80aed
