1f36d4d30f56e2fd
ccfd1a09f70bd924
f529a859691a15e7
de4104f6fec8ec53
1307f4edd6b7e0d5
0e0aac05f8e3295d
bc05bf0c21fb16b6
0915b61bfd22f0f7
ebdd06e6de4ce835
c6e4310526d204b0
27e0bdab53fc0cc5
df50cc05f149f2b7
25103bf3db2ad307
fbe8d9062c2ec4fa
511a00caebd6f1cb
f334cbf50b05f8a4
0e0515d541c611ec
edf9f8f53bc328ed
2f212ae1ebeb1cd2
1811eb182af2192e
0f3ee71326afdf18
c5dedc06e03323dc
e9e2b6c9e2fa23be
f42420f3fa2e1bff
25ccda022a6fdd1a
1af9ce0644181bb8
f224285d17f8fbfe
1d16f22addf31600
04311a2903e00c0e
12ecbed751320ee3
2800e33506d51b0a
e0f7d700cf3021f3
f7e500c61f47fae3
f1e3c20fe92553dd
fbf12abf4f192e35
f1cef6eeff4a1a38
f22f3334fa37db17
4cf7ee21d01749ee
0df0f3d61e0b3323
19cab216eb071d2d
1f1302db421cf601
0b033c15dbfb65de
531bd1d7c3d2fa0d
dace250d03df050c
db48efd3253400ed
42e9fa07f8f24746
dce5c707daee2cfb
0e5d00e302d4dad0
f8dfc8f808c0e3e0
b4061e1fc7f4f4ea
d7faf496b406e5f6
0cf21e151be609f2
1a1502e82cfcc90f
c8fee9f42ee004ec
3c34f2f0c8f040f3
0f4cd11431da1298
263814f2f6271a21
35130bdbe602d0ec
dd28f9fd00df03f2
f7e441f70fc9ffc1
1ae3e82427f00823
37f1def8d8380972
e204cc5cd900def0
01f9c1ccec0fe9a1
1fa600bfd9651837
4909f1f130b82533
1327ecfdabd9e6ed
d8d72c0123cce6b0
10bc201847c3070e
15fae6153d34d44f
35001bd850d341fc
fbc527d9140208c3
f0f612bc0abafd05
e7e3bf0ad72bdfe9
30e2cba796e7ea06
174213341e0d160c
21ec3f12d3e6f312
d407fb04bae20310
d4f52fc91deada1a
f301cf0df8d1181a
1d123808f2331813
eae5cc0e040d1145
f820121ecfd036ec
04b0f63ac8152e06
fba424c3f3f2d40e
ffe313f0f7bbe833
de392952111422e7
043502073e012b4f
0d2bd3180a300511
500ce9175504aaea
1d31b74a01040b05
ebcc11f4f1c0ee67
2ec524f62f52d5ec
e20cc1e179160aba
0b09dc3adb0e31f0
e0cbd81e1501ebb4
03e72b2109c2db28
fd1b01132006eeba
3923061cd1161c1d
ef193924de30ec46
06e80533f025fefe
0c061635af120511
f90808ddafea07fe
d4f8c41e0ced154b
23e41cefce271209
2fdcd72f290dd6fa
03fdff32ea03fe36
f71405391a04052f
f30c101106e1031d
24072de11ccfdcc4
170f1a47e3ff22fc
e9c91ce338d01e1a
f56c062515241ae6
c7ec3f09a221c0bb
d3bd152baa090237
f70f43baa8d80304
060217e4ee61d3f3
47efe811440bc711
582a2cf74cedd8ed
fd4800f43549e833
f053dffbbe2fec22
2516db2311101bda
22d6caeca40c202e
e4be290625d7e023
1827fcecdd49e0ed
ee27f90d54fb1513
34e1cf4455eedb1a
ecc0c7f8e32d03d8
2f03f317e22eea1a
fddbf602eff513f0
e20c16c3d0fde635
0f20ea0d39cbf957
e526f7e1513d1f08
c4d9ca2333ed0528
f10fc45047e818dc
febd36eeb2d6f0ee
f8441728f6c216f1
08d7ed33edcd2cf9
f0ebba01ba212a36
14d7061845112a1c
23aa0c1f17ebd80e
e21b12e0f8c0c8ae
e021f1470cdadbfb
f803e8193b2b20a0
30e810fa14a9fb1d
2ae9271cb7095a2e
151311a623f706f6
da103127f60801e2
30f730ec2303dc16
1e11d6102db60321
d0e52e32cdff13c1
d22e11ecf4e21313
eea1e6102e05f508
ef15f9d951fee11a
02fccb2417dfdeeb
ec32132c3fe90848
f2aafc233e54e10a
0809d223160ae903
0735181e16d820d3
dde0e42cf0431922
25eb17f0e7dff71f
ef00c92105c6c3b5
1a1ad5d711e1c807
fc02fd2ddfc7e7fe
f2e4e5faf9bd0ae9
37eff00dcef9dfd5
d1edf0dbbce4070c
e8f124070d441ecb
00b515defedd1409
fcd6c500b32eeac6
c2dfe3e1e0dfcb32
11bceb0a38fafdfd
eecbd6cffebef8fe
f21bd919e6e12ded
f7fd24d0b7192c3b
0328c9dc41e11fe7
f7d001fb261219d5
f62b2bdcd13d0de4
fec6e7ac3408fd05
ffffe4c405bfd3ba
0f1e342c0dc10e28
3001d83229cbe4eb
3e25af3ec019e7d9
d8ee3500f225f9d2
e2c3f02c05b6e3f6
15d01d0b3316c7ec
e308ed061b1110f9
f1dd04e51c35dd2b
1c081d0eeafaedf8
19151b07d823380b
342cd315eaf420f2
12bc0d1cf5491716
