fcb2e2031515db03
17eaeefa36e5f7fe
0303dce07ff4e70d
fcf303f7eaf712fe
f82a291b3ac400e7
e61002e1bc00262e
22eed81838e6f10b
fde50fe3ff24f41f
19f1370819c4fc02
fff7e3f02d11d6b6
0e08aa0dbfd71efd
e2f60dfb0edc0807
30c006d634eaea1a
2e0df30a16d7d51c
f8de2cc406dbdeef
d650ff0add0f13cc
ee17f00b3cbaeb06
04da16fc1705e8e7
39e20342120fe91b
e0f3c02700182ca8
2c3cdfc6dd5afee0
cfff2006c341ca08
4528eb38bafb03dc
081ef1f212ccf9b4
10d9fe2b2cebcfde
1f04daed010a52dc
f7f744e556eac538
f7bafcfeee41e0de
3004fdcc4a1f0b03
f400c2e942cadcf7
0007d4efee0d3cc1
100cdbe61b12154a
0fd8190bead719da
e6d9c4fa0acf2fd6
caf33acc15f9fa3b
10f4e115fbd0ec92
27ac0cdee3010f33
fcf4efdef1f9d0cc
1f261f27cce2fbdb
14fad6e43efef00d
1adb29f811e5e734
10dccc27f6e837ed
471a3533b4f6e7d6
ffdc1a1bf9dc0109
e92609ea225df9e8
eb17bfe10b39d5c3
f3fe2c3b15d1eec8
003800eaed0af6a9
05adfe40a80107f9
bdfdf1d23fc5bde4
c2c247d9ebeffd0c
17e923d020dafd16
13372c131c220deb
471628e913ee27e7
e82906195fe509bb
f7d9cdf3f3d71c2b
e3d03a03ed152819
d30d2ce11e1bf996
e0daf440bcfd19c1
07100f1bff1a01f7
16e4112916f6f404
04fedf05fb04fc1b
3b1a06d6b7e41af7
10dbe1e8dcea1cd2
1625d606176bd11c
37dbe6073f394011
d2feb15646e8f6d1
d506d2d31931fef0
184f2d20432ecdfb
d10312ea2718e428
e621d0c3e6d24903
ecc71d03b8461de7
db2f14de01d30d23
37d803f3fbeded13
1101f34410eed5f0
d215c9f31ceb0aaf
191c1adbcaf80f1d
ebf31703da25e8c8
daf1e4154517ef20
d2020a1d201ee8c8
f6d92427391e0b2a
d2f2cb2ef82b06c6
f53bfa48bbf84c04
f4fcc5eb38fb17fb
db211be439301710
2a0cc31ad8ee32de
44351243fcd216dd
f73bc50212d40adb
f30019e61f1bf6fa
2a062ae8f3d2f640
c7fe370437e2d800
04b0d9da03c0e22d
26d212ec12c9f626
0618defc1aead9c6
2e2521b40809d5db
e8bae1ed1deae353
dfbd1d2bd4ae03e9
2713150ad200d0da
31e301cb0cf7d634
00c51c03231e0e24
e140f1ce1ddb1b1c
2004180dcfef1fdf
27183a1826d2113f
e331e721e8c4e7c1
eaf510d7fdc0f10d
430b1816d3e1cabf
27ed05fef3061b30
07cb1b0ef1c2fda6
0500e1e3f245e406
d20916054901f6c2
1f2fb65e290f03f6
0d37e30d153c1450
da2f1f4cb9e4fa0c
e6ff3eedc7bf29be
b11211fcf3eff1e8
14e110cac03bf014
f43e2fd6f40bd915
30ede928430fd8b1
0c280eba28eaf2d1
18041215310cf4d2
1bbcdae2fb2cfd03
ee10ce1a32c5e7ba
0b15e5a21817e60e
e622e1e92e101a43
f7de160cefd412ea
bc1908240816efd7
33f925fd11eae4cb
0bcbe8e526401568
21f80107d819ef2c
030f06fd190eacdd
1334cf33b1f3d3fb
f4f10e123e071f90
e2d10b0c4824ec0a
dbdf220f07d02f2a
00202eccfd0a01fd
d7480cf2ae2c0a61
2324f5bec6aff212
48de0f162f384bda
f7fcb4b5c5f622e7
dbf5291b0ec91ff4
d3bd2d14f63f02d5
08f8d2da060fd2c2
baf40f340e05c3d6
e832dad3fdcaff82
13100eb5022ae40d
d116ecfd1ee3ead9
e00f2435bb17234a
04ce0d3efc541817
f403decceb2d08fa
e8f9bd252c404a0a
0ceb0fe31a00f63b
f11ddf0bf2c0e6ad
0bcf2c32da4ad316
46d1f2ede235e80a
19f341d2421cfff0
f42a33160d36f14c
ffaf2202121ecae6
5d0ded00011d35f5
1e1c1dc933031c43
eb2ddb1a100ff4f0
13ed1d1bdef30304
4504e7f4112824f1
2517e6ee9b28fee1
220c20dd283d1920
f6b6fefbee460603
e2e4f028c909f7da
ff0135f0fe202636
0ed82f1ef03a1dac
fef8f020e9cfdf05
cdf40709c22c3528
16231dce38df1a3c
fe2f000ef23dfdd3
ed43fdfbe4dfe128
06d7f6d731e11403
0bf9ca442d03222a
084e0c12ea1fe037
f7f80cf206b33de6
a704101944221acd
b0e13fef6120241a
07ea2df3f61eec18
db19e62526cdddee
31f421e0cb23df13
bd08b63c3814ed19
e8dcfc1fe3ecf1fe
dd3b30c6fc081cda
c126dbda031ef1a2
d1d5d415a2120f0c
16bf17290bc0e746
2537f7121224f008
cc111d0d09101d0d
23f01bee2cd33701
19e21c11f6281526
