e8d3ee0edf31d5df
27d7f3076eda3c35
0bedf0212cff53ea
f1380612def02376
e2ffed441cd620ea
bfe108f2ab2eec06
d0051b07220906d0
2269f720f7000248
f2bd2f33fbde1a23
4cdcc309aaf13803
110824dff001e0bc
17d2f62f2a301ef1
e9d4e5cc27badfea
0a0309151bd31d49
e4edfcebc4d3ecda
124fd514f836164a
2a1ded2f0f13201f
2af10fdc1f00fb21
01f122f91a0b2817
e847d5063cd90f34
32f5dcdf21d50d0c
1df8cd15b614f74a
cef102cb540530bc
e238cb09ff3aef4f
e7ace7e02d4aeaed
07dcdc1369c6b63a
e21a2c3aa804ead6
f51dfc11c809f00c
f3d8dcdbfc5cff15
1611120aeff14c51
0f12f53ceeed28bf
094d14e921cef351
2fe2d4fd1fbbeb21
14d8321747d21add
e910e65a14062b03
faf83314c64bedcc
e3180520eec2e8e6
26d0eb221ea76ae4
e209e408b711c60c
e91b1ce6edd71d39
d9c00acb44160ddd
e3cbe727dfcb3403
fe22ed18c30003c6
14c92924cdfbeafc
24e511ec1813efe9
e206eafe25140ab8
1be4c7250ce23d1c
f913c61e1c482fcb
d254d30deaeaf8e7
12fcebcdfc03cdd0
bfe521a619e60e05
0d28411101e5f063
3fc0fb2a3b12f70e
f9eb1434240533d3
fce1c64acd014ec4
ed4fcfed19012bf9
20ed2927eeae20f9
e216ce2311cfead5
29f1489557e7efe6
19c816160bf722ee
2900df1820cee7f9
0fecc5f45ef24532
24053a0e10d124bf
16290e08ee2e253b
f0ea0acb1ed0d42c
1bd60d33fee2da38
4e23223ec7ceebd2
eec7bd1be0230243
20d1c42823e7feeb
f812f2e444c93f2e
f11bf170f607f329
0232ce040e14f8e2
f53cebe2f5cbf002
e0e6fb12c6d5e036
032ceb20000815cf
09e0f30034370ae1
35fb04c5e82bf51d
dee2301ca534082a
1528f118a6d62adf
09fc20160836f60f
1cb3123df9ecdb09
2cd8fdf0c2e55d07
d0d3e5ea39fef6b9
ecc13123e0ee180a
febff50d20cb1fff
d504cc21d0cc56f6
4617120a050f0beb
e92913061d1b221c
0e20e2ff2d43f30a
34ed2bd718e926da
d02d1bace7f40b1d
f4d4fbf9db43f3fc
00ebfdf130cd0b00
d8ee2a0920e74fe9
f321a91c42f32f1b
f5c3fe02f1fdfab9
0910f825dec9f221
f111d032eacf1b08
2fe9e94c132a30ca
15efda2fd52d16eb
2e071a0532caf1ee
3ffa0b0b14bc3dc1
df0b33383c14fedb
19ce3ae0070816c5
0f920a30f1e3dd1d
e0db00220ea00737
ca0113cf98dce510
040c0301450feb0d
fc4e1fd30ed0ee0d
daf3002d19dbeac2
3fe4b5e7f6dafd27
dd21fae601edf6bb
ce5905eed746e50b
fc0a26d60851e616
cbd334d12bf6a857
fee404ca05d507cd
3723e60f0aa8fd0d
daf6e416b518d8e3
18f0bdd556d236e3
0a49fe05f2da1ac5
23fdcdd9bfb3e4da
411534042e1cb1e8
1bd2fa97d5fa15ef
ecc03f0d1f35dd1e
11f1d320dcda2f25
13e4fdf249062818
d0d31c1ef3f2d218
fa2fd6f01bd30bd1
effe29e7da610512
1ef909e64e20fab9
e318dfd8ae1aedcb
f8ffecfbfb2b074f
191eed0b220825ee
2c00eae52aeedddf
3f0e29003cfce2d8
e3bdce0a2df7ead7
1a2b19e6209efcf0
e3f9402c00d7df2f
c7d5edacd0e0ee3b
f503fc28da3414a7
2a10e6f4ddc6f21d
50151c0cc4f8e00d
37230042f7f923f1
e9cbf5e2034722d5
2919e317e70bdbf8
14ef31e72bcedf10
ebee34434703ef27
232d07162126f1c2
17aef21404fd22e8
1714d229b1ae1fba
38e2e01efedc0816
d6c6e9e814271b22
f2bbf0252d061813
eaf4eeeccfbdbd0e
370ff401ba081de2
15d7de0932ea11b8
f6482eccf414ec37
06f8c6eeded44416
0223dfe70b120733
fd26361efa35f601
2004f4023113f8df
d625142c27073acf
ccf7cf9d9e0301d1
01d8e22a3ae312d5
dcbd29fefadaee1e
1ed507e5dc27ddd1
281608c9241cce12
0fce482fea23038a
f406060a1b1cfd04
40141e0ced0619fe
d9e800bfaf151aeb
202e30091147f312
d9b1fde9fa1d01ec
fedd072d08b1480b
d6ecd49bd5f7020c
ffbfeb10fd410d02
c47007f1fd26e505
1306cfdf19eecc17
20122b12e92907f0
e0ce0cd1b6dad3e0
36a139fd30c7d719
3916f518c51716ed
0422074505d0182a
f0db443518382a4a
fd15d7080d02f6e5
e00534f40e1aed0e
c3d420f3eb1bbde5
213828dfd116dcf4
f6e72401eb52081a
ec04ec0c23f20648
02fed0d201fb0e07
eedfd5eded15ed56
