041eef0200f3eed8
eef310ff130cfc0f
01e90217f2dff7ed
dee903f10cf34203
f3dbfc0ee1edfc12
09daf5feeaec0503
d811fd19f811e61f
181b02f6edf218f7
e1fb2214eb281403
020301030b0bef09
dc14eff50dfafff8
fe101ef6e206f611
ffd50a0f2728fed8
eddbf8e7fe14f317
ebf105fd20fbfefb
35fc0de1f9ee10fd
e8f61af6bf1cf6fa
fdf5dd0b05edfd00
c515f904e9ee0709
e605e91df5f3efeb
ef31f7ebaee5040c
072beafdf8ec12fe
ed04f215d70ffb14
c0f5ff030df3e9e9
0be423e43a2f18f7
050aee0efefc01ef
04fceb17eff1ef21
d6091912dc0df8f9
f1fae8f21801e6e7
10d4fcdd1414fd0d
f4e8ddf0d90f07d4
ece2e50118f33c05
05e4f311eaf70c08
0cf8e8f9fceee7f0
d6f6e5f0da1612f6
f7050e08d4f7cdf3
f2e7ebfda2c7edf8
ebde0eeb020408f4
f21007ffeae1f6e9
10fdf6e62502c21a
151f060ccb1ce304
04c805e4f90ced0d
f003e0f408dd0bf1
06f5f1fae1f9ee0a
fc290215c909f805
02eff311090af6e9
f211eff4f90ee7ce
05fff7f8fb09c50f
ffece8edfcdcf2de
0302080efbf1f6f1
1a150508e8e6f9f6
00f811122eeed5e6
f0feeff6b92ff7f8
f3dee60ef90803f6
d20fee07dbf9ea13
f3f20ddef8f20c03
f210fffc0814e717
e51218f018f1e9ef
dff50627e71ff5f3
4ef1e2e0e308f908
0be0f3fe2306eaf5
fdcfe7ed0700f501
fd0113dd05dc0603
29ec0afb1dfde702
ed151c0a27210b06
19e816160cf102f0
f900f9020de3def9
dc0efb02eefede0a
f311e2f7c9f90119
f5ebf80400ed00f3
1aede60607f80306
0c02fff70108dcef
ec310df9cd13f4fd
fafaf7f3e409f1ee
10fcf6efd2041cfe
1ffdefe7e50d2304
11f5f3eade251216
f842f8f8e6f00f00
0c09dbf2fde1f004
d405110feff30504
07e700e6382004e7
09ca1402ecfb070d
e5fe021003e9ec08
0205f306e2102a06
ffec16092ad00bdb
0de620f01108fdfe
090b1702f6ed1428
08ff0bd4150f05f7
0004e4f1a6ddf1e9
fa19f0f6140bf70b
d9ebe0dcf6051eda
ffebd60425f0d0ed
f217fe01181b11e0
0adc1afaf7f010ea
e00108f5fae50317
14fa110124f60d15
f508fdf5051e0107
04d7f7fc0aed0e08
f603f2001bfc020e
e017d7f927f1ddef
f8effc16f6e0e408
f21cffff0810e31a
0de8fe20f7e9f0de
dc0afa1ce90c3cef
0de2fb1602fbf806
fa291ce41411f6f7
1bf91819fffe0507
010def0014ed32f8
f70f0404f10affde
00e7e709e803120d
070c0c2adaf4e803
0b0cf0eb0ff4fde8
0b1019fadedd20f2
0c0b161eed090ced
17f31213c71de120
f000e8111b00f5f1
0fece901e4d0070e
f22c050809edf9f0
050500110907f8e8
200bf6e7cdf5e4ee
05fd1cf6c30d05fc
00fd21f6f7f00903
d601e22104f20b1a
cbf2f3ed3f0502fc
08ee1decc324f2fb
f5fafbf6f9e9f5ed
09f506fa0cf8e929
2510ec1dd10eea1c
fd1ff0f92a40e514
fa1b0cfc000ffff9
290b0e0e2de3ebec
c7eb00edc2f83be0
09eb23ed36e32be0
0cd2e821f70d04f0
f30e120c260be0fa
d3050219cc1bda1e
dce024e2442af7ed
03caf41fee060e02
020818fffd100a15
ed131e02f218190f
0724f704ce1905f4
f2ed11e6fd00ee0a
e8e7edf4020aefd5
efef00ff1cfb3be7
f1341002d7fc1708
05cd0708faff04f0
ee0308f80905f11c
e5fe071eeff6e1fc
031308fcdfcd18ea
11ee01fd01ef03e5
f31308fffa2dfb13
d31a14170b09e2fa
0afb02e534141400
22d91905020c06ee
fd030ae8f3e20aff
df080526dd10e31a
0d1b06f0dee50317
f9c2fcf4f5faf00a
2d04fe17f310f907
eef1f4fb0ef74203
02f215ec15cbfaf9
14c2ed03fef4f1f3
1a0c0ef7022b0df5
190308e8e40b210d
ff08f4f3aedc0d1b
11f9f2fef106f605
e9f0ef1bf8e4eff5
ccf4f4fe1d041a18
fd02f616b92af806
e8c1f5de0a04fc04
230aec2010d8f0fb
cb04ecf915eaeeea
1500f8f4e0d8faee
0e52f804f40604ef
0a13f03608070b05
cd001205fcfbe1f6
03e5e7f831f104e3
19d5e1020503fdf9
0cfaf4ffca09f4f4
b8fbf620020f0aeb
f7ef03ecbefd0311
fc02040ef7fe1507
fa12eae82018eb28
271b0b13ecfa170d
0bfefdf407fcf102
002d0bf7130bff09
d6edec16d927f306
0df6f5d5e7e818fd
f7fcf2f6ae26f214
030f0bf4f91008ff
e3f000ec0bfa0ffd
c9f3e3030cfd29ff
edfc10e458d204d8
0805e9090202fc05
1a0b15f7dd00eae5
2a0126f0d218dc05
11fcf606bce60922
08ed10e0160aeff9
14fa01eafef718fd
2bf6d9f50ffe2300
f514150dd2dd0de9
11c3e016d9eef8f5
d5f31beaecf515f3
2ff5e5f8e30af4eb
fe0afff121d204e9
18250cf8f8f417ee
fc18f9f320e1f715
04060025eff8de00
fa1cf701ba021bed
030b0711fb0005eb
0e1d06dce01adff9
d925031df90b05f1
0b0d18f2200e0ce1
f1df0cf11508070a
fc00fcddf4070f15
1ffefb00cb16100b
ffeefa120b16f5f5
0e0e13e00f05e50c
2607101e151f02ef
17e2e0de03f0dbec
f7e40d09d21a0401
fa090505f801f30d
07070b2811fdfeed
17091d241ff60b06
ffe1f7e4f214f3fb
f5e8e2f112f8f7ef
e20bf9ecd814f913
25071b1c2f0020fe
12e8f509ce29f013
040113e7f215ebfe
e1edf4f222cbfaed
1a0cf910f505f1ea
04020e06e308eef2
032c24f10bf8fdf6
01f70eeb06e800d6
cd02ebd826f92eef
ef02fd0cf80306e9
042e0d06f2f605f9
140005f410fd0afa
f00d06211a07f903
09f0fff6f5e411f1
09f4f50503010be9
f71020e30d0def0b
ca022020c1122019
0afeef0245240fef
efdeef090df9effb
17ff03f40d111322
3b03fa02cf0dfc17
0725fa04fbdd0e0a
14f918fff4eb13e4
02f10011ef22f5ec
02fd161fe71109ee
e92305e8cbe9fc06
0a00e209e808f8ee
e8160f12f00ef802
191f0f04fb00f306
07e6f8e7351aedf2
fa1ef5f91007eff0
0ef5ff18ecd6eafe
f3f0ddf9130048f1
fef3f2fd4b1b0fe7
1d2ff509fffa10f3
0e2622f0fae7e819
f400213526182520
ed0bf80c39120c0c
fbbdeb040011ff03
232a1bdd091b19e2
441c0c28d11a0828
f9e4eafada07ff17
ff20fcf300f4e5ee
150709f724d307e9
1c0bd9dd09f61906
0c180dfb8725fbef
0d34e706e806fe0a
edfeeb02db2201e8
0709f6f71908dffe
fd01faf5b2001402
1a03eb10f9ff09e6
d01bfffd1f17f401
e50703f2ff06d914
fcf1fd004d2a16eb
0d20090b11110cfb
0a1e14ed1c00e9de
340600fcf518f108
1119000ec1e7f7f0
ebdb05e8ed0302eb
f1eadd21ea06f3cf
de01ede9ddfbf8e8
edd803e838db01e2
06ccf414fdf8fcf1
e3ff14e3d412f9f6
cd0bfe08c91520fa
09050c1101e41703
f3c915020ff40ded
daf914e9ff1518ee
f10efadce50619ff
000de9fdf83be5f6
08eae9f7eeefe6ed
1df809181cddfede
19fbff0ad3fcd701
0ad60be5c0d014f2
032d05fbee01ec06
eff3e829ef0503f2
cb06e5e6f7edd2fa
0c010bedbc13f5fc
fe0afd02e9e71107
13f30d02e436f709
e70514e81a05e8eb
edfff4e4b11000fc
21011705fced1503
111cf8fdf507d9fa
0df123fee205f70c
ed0a07fb4fe80106
e930100b01ee10e5
120c04e219e90f25
52f4edf616071bec
0eecfdf112f6fa0a
fdf0fe05fef904f1
1e0bff03de1af6d8
0afaf0e5f0e914fe
ea00f6f745f10912
f62d23050ffcfaf6
170cf3e514fde9e9
23010f19f500d9f4
000e01efe5ceeb1f
ef170f0806fdfe00
e3f5f6f224d91a06
d90beadcd3e3dcfa
f11c1006e6db0cee
f822df09ed0b0eeb
19f411f1070a1c22
270aefefb50702f0
0806ece832de01db
03fef411f0f90b06
1b080b141810dae0
0114142a40fed2f0
ff02110aea0e11e6
1df5ee0a01f01a03
21fcfadff4ede1ef
fe0f0c071614370e
0d25fc11eafb06e4
07deedf70e04f2fc
160b0beafd0d0afb
131408f6df05ccf5
f2fc0307c8ebfaed
ecee0be7edf9ecf1
e9f30eeaefe7f5df
b2eed7f3d5ef2bdf
12fee710b9cfe7e5
fe3a0ffffd030b15
1bf0fb11e1eff9ec
36f6fae301f6fcfd
1afafbf3eae706f6
041ef8fb0305effb
070ffce6ed08ffe2
04010803f300c701
f92103142229060b
fad4e4eef701f0f3
0bf3ff1f190decf6
20edeb09d7fb1aeb
f2edee1737f7fd25
f9c9f6020315050a
06f0f0dc24faeefe
f0f4e6e7e5f5190e
ed090ff6e4280919
fef7f5fdecfc0ef2
0def0bf0041ce919
edf2fe172e04d30b
10e0ffe996f4fffa
f523def2ee04090e
e11ae8d5f21208db
11071efef107cbef
f0edf8fcf53a051e
f9c410050805fdf5
0f040a0e28d9fe0b
f2f60bf6e8002601
0b300e10f90c1009
1a28f40905f40bec
ee1314e5f7e802e3
befff9ea3407e415
f120faf828fe041c
14260df6f6f100f7
050409e32024e4e4
cafd0bf3f101c5f8
