121612052836fde3
fa10f7ef0102fafd
1203e71b00f3ffdf
4c04f0f714f30c08
0ae3f5ff11d3fdf0
08490f06ebfef2fd
0b01e91b0df7e209
ca13f3f6fa031806
002d0deb0a1ff7d8
09e7e917f903f6e6
fb00eaecffe20e1f
f61bf009f80d300d
0e0ff9f7291ff9e9
fb18d8f517f8eefa
f10f03f5e2d2f6e8
4eeb080ae7ed3beb
052101e7ba1802f7
0209d4f2e7ea04ed
c7fefa13111d0cd8
17f2f7e1f9f73816
0f0e14f80925f817
032cdc00f4f30bea
effc0f1be708fb11
df0cecfe2eeaf611
00190e1122e01417
0231f2100b0512eb
170df0fb02f0fc00
0500e90032f2d101
ee0df0e8122df012
0e30defa1afde614
f2fb121beee4f8fd
37f20d0113012401
0ae6f901fedafc08
08250302f2fb0407
df170e171419ee1b
dbf90c0817fa0d01
f9ed070942340ae3
ff0e060119fb0211
23fdec0f09e9dc07
d5010ae00703e4f0
000004ee203ef80e
eed3ecddf708ea0a
000bece61201f006
08f0e1e6db085809
0e0cf3083abbfc19
080f0f0d07fc0508
fafae3ecfa0b04c5
d7fe0512f70f0ce9
f9cee20102fcff01
f411e6f00cfce913
d20def21e2000006
010aff01fffdc6d7
1311fd021f0b0a18
fe5cf1f10202fd0e
fe0fe929e8f70b04
deeee80413f606ef
eb101908d9e3fb23
e90ae9121106ecf0
d61c02ebfefc0af8
08f811eaccfdf40e
140ff2f8fa13f9e8
00110c02fcf4f509
2208ff07f40008f4
26ecf8ea0cfd150e
15f8fbf727e100ee
02ecf0f60df21104
15f0ec1a0df0d6ea
be080fe437011fe9
ff17e5ede1dc0af5
072bf2ef1afde909
0309eb15fdf3e704
3500fdfbfdfa2206
0ce6f0fef03708eb
f5f7f708e1f409f3
f009f82edaf1f71d
0314ec0806022415
03d9fbf7e015ec17
080902f8f3f00df0
f0f50c2af8f1e405
06feff003802e50e
0b1409fe28eafddf
113c0e03ffebfaf6
15000deddef1e4ea
d70a0909fff0fcff
09d9f6022707f1f7
01e9010df70d0df5
e8ffe8eeee0be012
0c01f5e8370221f1
f711ee00a727e2eb
f4f5d3f708f50507
eef9ee16d5e7fd07
00f6f912eb0321e2
f3e8ff0048f413e3
f10efe0906ff11ec
220c080aeafcfb04
fd10ff120712df11
f8200001ebddec04
01ecdf03f8f0fa0e
faf20deb010ff0ff
00fbddf011eefbf3
f20bfb04134505f4
0720ec05ef12ec0c
fb071a12ee0a0022
2bfdfae71efa09f6
0deffaf8013ee9e0
091bf6e602f5ee00
3decf70c24df190c
46ebf5f2deff49f1
f600ff0ff0fb030e
ec0811edf9f2fe03
f716ff001efe0c20
ddfb16effe05e813
0e0eee07e2cff6f3
eedade00fa080dee
e5ee111dd0eef5fe
0505091bedf90800
fbe8e8ff2eedf30e
ed16070af3fcfc07
0ffa0310ffea0f1a
d6f4e7f3db0ed0ea
f1f1f8f4a906ece8
ee3bf60ffefafe03
0cf2f6fe181ff4f1
ef0704ea13f825f0
030008fa2be1121d
0805f313f9080cec
19fe13060c0cf6f4
f702f3241ef92805
0b1b10053e54e8f2
f9e5e0f506f9f1fb
14f6e2f004ddf71c
dfe4e5ff1bfc36ee
fbf117ef0226f6f5
03e2130003f70dfa
fc1800fcee1ce6f0
fbfe03161e06d610
0becf5062ae607e0
1301f41f060d06fc
1108e8f408e5f4e6
1f0f01f7280cf409
1214fdfb121af817
e9ef16eefaf6e701
1b030907310214fd
e7fe0104d1fc07f6
f2000bf3f20af90e
facfe3eae6fc0c09
13f3f411dd23fd06
ce00fc0e03f1330d
eff9fb0ce2e3feeb
04ef06f3f508f801
ddeaefeef7f9f818
1003f304e908ebe7
0e140ee9101f0d03
f3f1e50106fc00f2
03020413f3e51218
effff51415112bf0
ff23fdede0fef516
fad705e8130aee10
140c08fa240afe0e
21f9e8eff9ed4bfa
07f5f0f9250300fd
09f7ee0df5fefced
11f8f70ee82ee319
1aeff719f106e5f1
fdfc0008bf1bffef
f33bf3151001fcfe
e3eefcdafa0fe50d
230df90b29f41cfd
ec1f0bf34532f70f
f7cf0fddf914f901
23e6fce920ffe217
e807e1120ffd3af5
f31bfd152cdaf211
05faf5022104f3fa
0503f00e1605edff
f7f3f7da01021add
0eff09f6f8020b16
0536d6eb00f909f9
e0f4e0f4c728f913
1305ee0a17fa0bec
ef0404fb0d21f9ec
0e2bf40afafd09fa
1509ecf022e9fa03
2b03ec16e60d08fc
06da0506e9fcf701
0e1c08020400f3f4
e0f411e9cef5ef08
420116e816f418fb
04f1e8e7c207f5e9
fcdbf3e40c0bfc00
19f2fa08e5e3f1e8
1df9eeeffff438f3
0e31f6fafce80eee
1cf0e41211080701
2210fce8e80ae5e5
1d13f412f1fd1c04
071301f6ee13f7fa
04d5fcf71c0aff0c
25f20c1425ff1500
f7fce5dfe90026f0
f10c10f4effef000
0fd7f1fcff02fc0e
d31519ff06190720
f8ff0dfc09fa3906
11100205e8c9fbfa
f2ffe1fce7f307e4
ef0f1010dce90ae1
f3f7f5e621000601
05f9f6f5e2ec0de9
15000af1ff0ffeeb
16fb0e0de2030cf9
e3f7fd180ffa18f0
0de0150a2ad3fe05
0918f1fd0bf90100
ee1916f0090706fe
df1217f227f62810
efe904f3a22ae2ec
ea01f3fafffcf912
f409ebf3e2fa1cf3
41ecf7f2d7fddcfe
0efaef062bf6f908
09091a01f5ee080c
0104faeded2b1115
e5161df10502f1f4
fb2d1800eb1afed9
0a12e203f800fcfc
1ee90ce5f2e60101
dd07e005f60c0308
f9fa130b1a34fde8
ef010ef1ee0eea06
10050ff9f8d012ff
ee09001925f258f0
f3e6160c1efee7ea
feea13e9f601f7f9
f801fee217fa00e4
16ecfbe724fd3cff
11e30a04b2180815
f022f6f30ff9f50a
07040d1412171118
0d010205f4f512ed
131a09f2d5c30bf7
18f0ddf9fafbf106
f61216fddefef6f7
2307ecfde210d510
f00217041b200ffe
f5000810fdf609fc
0df2fbe031fe0925
0f10e90125f3fdf7
00f415f3ee1afb13
0b14e70bffeb04f0
f50c14fbfaf015ed
ea060aef2b05ef08
ff01fdf2ee1915fc
07dfeb050efe0bf5
f2fb03e1f0f6f918
05010c27e9060df8
f4271200de19fbe9
03d3ebf0f4fae814
36e9f71f28fe13ed
06f50009e2e532e7
1017f910dbdb0af9
ff38e8f0eff407f9
f2000e0a1f070909
c602fd0cfaf9d107
ee42fbfd55fc0b13
0fdc271d08fd00f2
0618f5e1fee1f7da
15071ff6f003d501
ed1d0203262cec1d
e7f217f80c12ee0f
18f1031604ed07ec
f7e9f7edeaf050f7
e62406ff80e0f50d
0118f6ff05ee0700
ea0a1517dc13f4e4
39f3fdff000032ff
fbeeef080cdc12dc
0cf2e610f7ec1e0e
07ebfa121f26fbfa
0c12f22005f9eef5
f638051a05200df5
024e1603f6f8f7f6
e3f1ecdc1913fedf
31fa19ef3e12e3f6
0f12f9f9c80b0109
08c7d2f20c13fcff
1309fe0426e416ed
ef05fbee14ef2df2
ffc5fdfd26e61ce7
08edf00906fb0cee
0416e7100530feea
ce04120b0ef72418
ed0500f6e8ee0be4
000d2613110df70e
e8040bd5f5f9051b
dc0b03fe0516d917
0ff9120b201de9f7
f814fdec0905f615
40f00d064400f21c
25090af8e1ff4409
ebe70af126d20e07
f0ccf3081708f50e
ff12e50ae41a0710
1215040616f2edf8
0208ff13d800030e
0240ddf1f7ecf6ea
e0060ef1eb19fce3
210e07e930f6c104
13120115b7f4f3e4
f333e4f80a0d0bea
07e911fa2605fbff
1608192534fb150e
e8cc1a082500081b
fbc5ef12060902ff
08fc0417f512f20d
330b1bf9d3ff1ffc
f3f20c150adf06e1
ee04fde9f60c04f4
fffaf01007d7e8e8
ea07f31409f6d6ec
fd2e06f00701ef0b
142e01f7f303fcf0
0df5efe90018db11
2af1ffe824021610
f4f5f909e5fd0de5
f1ef10070b06f9f2
f2eaee1512df0c24
e80ee90d07f8f1e9
f1ec0dfe31350909
19da2014d8f4fa12
13f70e03dd1ce9f5
020108f5fb00d4ff
1629f9fce600f5f0
ee36da0e05ebfffb
defa11f5e7f00af3
da0c0de00a07e704
09fc070aaf2aee09
16f50ff9f0f10708
1af2fbe51a0900ed
faf30e10ebff250c
fc081000dbd90602
0cf409140af40501
2c0ae9d42ae5fbef
b3111ae612fbe6ff
0fe8effab20df6fe
ec2bf7f714f6f3fa
25fddcdee3fdffe6
08e802efe7ed3cdc
fae2ff14c008ec0d
0dfd06f10febf908
f917dff4f90b08ee
d6eafb090af3cd02
050312f2a5eceff8
edf8dcebfc030ef2
21fffeec09d7f7f5
e6ea0de3ff090ef2
f0e900f4212fe7fb
ed24130114fdeb11
240afdfdf8ea01fe
16fd0ff027f83d0d
030b11101212ed1f
f8fa1e04f0fc0c05
31ec181a0206f1fc
e3e5e3ebe4ee0fdc
0c06090ed5e3f6ff
08e81feffd0305f5
d2fa02f721ed0f18
f7f212090402d8f7
0e0deffb160feee0
1ce2d9ec03f5fffe
fcf00f02bc03f7ea
3afe070a15fbf50d
f8dcf7f23c33050e
0d25eafef007fc01
2c14eeda0ae00b17
1403fff9fdff1aff
0d0c110039e1eef8
0de90c0f1701ffe8
dceefff61a0f11f4
2603e00131f4f5e6
0912faed1adeef0f
173afa0ff9f7faf7
f202ebdde029e4ea
180a1216040a15f4
