0eeef20afcd6f005
fadbddeb0f06fb0f
fb040dead61217d3
fef6f6fccc0b2505
e32e05f3cd111209
0ccf0fff0ef41105
f7f3f712f0e6f122
ff09eaf2f603d11a
df091cfae6dafc00
f6e3d2ef00f5f010
e4fd25e8f5150efb
49fe05daecf7e919
f202fbfc28ddf7e4
f329f0e41101e606
25ed0b1bf0fffcd7
000805f612f324e9
f4e6f5f117ce08df
f501e20309fc04fa
c81aff00faf2e223
d40d12f504f30208
f72eef09fbd3fafd
f6031bfff6fb0cff
0d100713e0fce9fa
11f40809181403f2
f8fd0bfec80703f8
031c1e0003faf4f4
0ef112f3fe1e0ffa
19f80c0dc50d24f7
1119edfff633e6e5
05ca0d000c00f600
e0f41109fff7f2ef
3dfee0efd0f1250b
08f9030baccaff1d
f3d9f7fc0eedfaf1
e2f20b1be028fce3
081002eb3709e0f5
06f9ed0ffef00614
fdcbed07100a01ff
0efe0019cafcf10f
ea110709e104d011
0d1f0815ccedf9e8
f01303ea13feed0f
1fe908eee70512fd
d3f40a02cff12cfb
f812f3f822feee16
fefdf4f4f003fff7
e70206f6081c0403
f513110e360adefe
060c00edfb25faf8
09e812f603f10607
1306f505e8e804f7
e3141b0bcb0fc001
e41e0cf01fec0cfa
13ff0a0feaef0906
ea16f80707f0fa25
fa06f1faf7120013
1ffd03f3fa18f412
fb3e0f0c07e8f6f1
eb07fcffcb2ffa09
ca00090d2802bdf9
030b010418f100dd
fdf6f4fd090c0909
1be6e4db271200d6
ef04f9f01af9faee
f51f070f1ee40619
08f70b0bf6f1f9fb
22ed1d1207eb18fd
d814f9e5d2051800
1d0700f7e9dfed1a
f0cb1604150005f4
e3eefc130411ef0a
c9eeee11cafdd6e4
0a34f2009cd1040b
f2fddcf804f00efa
e606161cf4180613
c0031209e902b70b
f9edf30935f20914
08c501f9f5ea0cec
eaf602fcf4f8f405
c415010503f4f11c
03fd0ee9c1180aed
0baffd09fdf103f0
14f6f3f70b2b0c07
df0ffb09d21918fb
f400eaf40e1ef8f2
fd1ddefdf6edf50d
1bff15f3f0191b10
15f0ead1f0f50005
1300f8fc0109fa02
fd0debed10f3070b
f8eceffdd1f4feed
0ffdf0f0e9f1d006
1212eef621e3fa19
fc02ec15e7fe0c00
da0808f7d500f61b
010005ed2613f7f9
f5fe1a1435e912ed
f9bfda0714fb0d06
00ec15e9e805faf7
1f0b0ad5c40c280a
00f50deda5d6e40b
0cfae4e3050ef815
1206f71d0fe30105
29fd0b16eaeb39ee
12d1eb0fccfc00e4
fe16fbe50e0ff70c
03f9eef809fc1a0b
fcf701e71c04f105
011512f0b9e00608
f222dd1302f601fa
e70b05f0e0fee721
26fe1504040f1d12
e103170ffbd407ef
f3dcee0c050301f4
ef02f7fc1cf80906
dc0107e8cd02f005
18140bf4cc07eb08
e7dafaf2f3fef7fa
e3fb1711e3f50815
f20703efd506d1eb
0af304fe3fe90a06
fd2123140df011f3
061700e60b00031b
cc06e60e1412f3fe
082a06ebc4ec08fc
0d36e9fa010a0bfa
1d0b0c2718ef15ee
ecfb07f006f2ebef
fd2209eaf62c01ec
ffe9fcebf0fafef8
f9e7fc17e3f9f8eb
25e6d706d5ed3afb
e7002bf8132c09ea
fcdef10bfbf004fa
f30a0ee8e5f1ed25
e6fe08ebf41cee26
e3e91ff3ab2af20b
f802e801050805f5
11ef2aef22011825
3b16f2f0c0f326ff
0cee0b00cbebf7ff
f2e405ebf1f2f2fc
0afbffe910e3e5dc
c8fede07edfd1ffd
f1fe130d2e1f08f2
02cd1716f905010b
07fb04ed2905f112
060fef05d202f115
f40c0cfe2d05040f
f1e3ef07e8fefdfb
f6f81d0bfcf31115
cb0d05fdfb10220a
f9f8ffe43d170ce8
f70a0202f8f70d0e
f21d28edd5ddff26
451d1e08c614e12d
01ff06f70503f604
e814f5ec04f6fcfa
e6f600f5e5db01e9
c4f9fcf8c4f303e7
01f20dfe17271011
fee5e20f02f303fb
d6fc162d171f1223
0bfaf0e52af6f7e9
ef10f1fc13e7fb05
02d4e2f3fef4fc03
14f0f5f2e0091820
22fde909fd0af1ed
04eeebf6a401fcf9
ed0004e30cf6f001
170bf7eff416edcc
21f0dbf50702370a
03020de30fe0fbe7
f3260c0a05e903f8
0319e307ebf70b04
f1f9ec022ef6e4ea
f2f3ec0b091e08f6
05c4f0fcfc0907f0
03fdfbf4fa27f6f6
08f3fb25e8ffbaff
ef361ce5f2ddfd0f
efcb0d010bf511e4
0e0d2a08e8eef725
c70bfc060100fb0e
1800fc0d81cdf2fe
061eeff0f90b0403
f8effd0306211301
2204de081507d2fa
06f9ef02dbdfff20
06ebf1ff0007080e
1d020fd3f2e101d9
e1ebe2fffaf002f3
f820f5f2c60eeee7
fd12fde706fd0ff0
1a0114fd00eae909
ec08fc0deff7de0d
f11ddaf7c1e9fa06
ebf6f40005f4e9ef
f8f80801121be70e
c008fae1ebf11ce6
f128eaf73400ff10
f943fdf8edf90ff1
1ce9ebf4d6fe17fc
22eb0d0bf506edfc
e5141bf4122209f9
1cbd111103f60fe9
f91a09fdeef10af5
18051beac512da20
e5290fee1d06160e
fd0a1005f9f001ef
f71531f8d403f126
c3162510bc0aff06
f5140a14bbcaf4e7
f7defdf20206050e
deee0925ebe315e8
3b060d09f1f4d9f6
f3e1fc02a102f908
fd28eff3f600f3ea
1d07f1f8fa1905da
d2f0f8e0fbe81306
0ee8f50c25d0fdf1
18e308f7f3f90e06
ec100a1f22170c1b
d3ff1204f4091bfa
f0010ef93de6ece8
fe1af9effbf4fa05
f60003e011dbedf8
35eeebf1fc11ec16
10e4fd0cbcf300fb
04060cf70cfe04fa
e000fafb2aeaeb0b
2be8f9fbfa0aebf4
0ae7040ecaf3fae8
02d010fe120eee11
fb07eb15ffeaedf8
bde0e0e60feb0bf5
e02ef9f0b7dc15e3
f917fffcf9030bff
d4f1f005e60dfef6
c1fa10fa24f9e813
e30f1cf50dee090f
18c8f9f7fdf4f30e
e9fd1befd32cebf9
ec13fb23ee14161f
f9f9ee03bdfdf5ef
0ae7f0f40fea0005
fdebe80813270e10
e309e4e4e908dcf8
f808fef635fa00ec
1ad6fa00f0eeff05
df1f12faf81d06f3
cf161d20e308fbf6
f8fbf80737d7fa13
1335faf30b050a03
2917050211eb04f3
0207ee11ec05e2f7
0f0cff15fc2e0102
f3bceffa0bf5fe03
f0e51214ffeb0fd0
ddf8f2fcd2f9f00b
f72617e852ed0bf6
fc1d030b03f50903
0ffb1ef0eb240d17
41061226ca171614
05f8f3f3cdf802e9
0a3feb04fdfcfe04
26fe0febd3100407
5afbf2080f0e0d16
0512020ee7e6f002
f2f910eef2f3f1f5
fdf2e7ee071912e9
ece3d6deebf7f2df
ffec02f5cce814de
10daf501f40206f1
261bf6f618eaedf3
20fc01040612caf5
deee12f1bbf10ae2
11fce5f5ebf010eb
da0416e61500060d
cc1114eaf1fbd712
faf016f95ae9fd09
07470c07f4ea0e16
f01c2202d3f60cfa
fb0c0911ff0a1810
f6e60519c3e5fb00
f2f20c03090cfa04
09ec09f2f3ec09df
0bf6ddfcd6f4fde3
ecef11e344e7fcfe
00c6fb17110b0912
0ffc0505232c15f7
3408e303da12c30f
0124eb03d80c0317
edbbfaf205f90d01
e3fe0513f1170e27
1103f5ebeb07cffb
0100f80ba6e4f1fa
f318e3f2f4f0f604
02ea06110d00e4d7
26e9e2f3eff02ff3
00fafc0306fd01e2
f423f107fa0df0f5
26f2fb1b0bfa1c15
d0feee0c36ecf806
fef4e3f9ecbdfaea
070514ecfcf6fd07
e30ded1cef3506e3
20f21bf622f5eb0c
fe2beef22325f5ee
f1d0e6fdedf90a05
041519f9ea18efd7
e3f71f23c9112a06
ed11edefbcf7041c
08cee8140cf0fbf6
f00de102ef1f112a
c7fd070df1fefef0
f11304f5e4d4f918
07190e06090801f9
0107fae40ae5e9f8
0e01edf1d80032fe
f300fdf9d0d406f6
f2100906ec02f305
e60c021b23300b01
22f8f20b3c0addf9
ec110600a9cbf31b
01e5d7f40befe90c
e200f5ebe31ef82a
0ff408d6e7fcfff6
f2eaea0650c4fe0a
fb4f06fbea09fb0c
ee0cf2f210f30811
c1f109fce0f7f9f4
ff30f1ea00ebedef
04cef0f8f4fc0a0a
f80c10e9fb0ff2f7
0f0c22ec21062624
e9ee00f8c31211e4
18e90e17f5eef9ed
060322f6ef02f90d
e70a201ed60303f5
041ee5011706f7e9
0042e8effb00f113
07f30609f71afbe6
300afbe920f8f5f7
fd05f402ddfdfef6
e5d2fd05e9f3f4e9
0703e121d3050cd5
c1e90003e2f12a06
f90ff2fef7d9ff10
fffe1b01ec0d0d00
f60cef27e423f9f2
d6eee70912f31d02
fa14f10b34c4ede7
fb3c0808fef5faf1
ecfffefd1419f1ff
e5e6040032f1f7ef
0913060a240ff9f8
fa150f0a070ef4e7
e4f9ea02fef30eee
f5effa0d16f9f3f3
10d6f1fcdcede81a
022000fff80df401
1903f6e5160dfeee
ae060af40e04efeb
fa17faf31be00e1e
eef0f703f0fc08f2
f916f3e6df17e406
2e0609fb1212fcf5
06e2ebfff3d30606
11f2e2ff01f7f107
220f15d0eb2c0003
f2f11c20ff05cd00
ef2c0403f5f9f12c
f0dad3fe0e06fb06
f300ecf6ea1200f4
d7f0faf9c8f8daf8
f20b0c0ad6c7fe01
082ffbf4f7f7ff11
22f0f7da1728f6f8
2200fd13250e2101
f2050af8feeb0aeb
092116f20efa020a
11faf711db01fffe
fe0c0a20dd0c1919
