63c5f006ce0ac6cc
fdc619ebebf6dafc
5519e514dbfe1a06
ebee5505e7dfefd0
30b5e20b261d9f29
2dcbca6e091ff63f
3c3722eeefd6a4c2
00f9741ce6c110ee
20f4e41df7f235e5
2c23035c140cd8c3
095314ea2ff98e1d
fef1cd4801cddc24
d1f5ec15ee0615fe
19d45ded1e36e750
f527f7fe14e654e4
b3ddfb43fa25101f
0dd80f0c250ee3ee
4de3ca0b0b2a0fc7
de9e0803ed1d101f
01116a63f9d91cbd
adcffee91bf45843
b541163408411cdf
d139d4fcebdcfdbe
f5f8d31ff80ddcad
d933c50f25131b2c
1705ef5a00c7fa2c
0a0402251e02aee7
c3f44328ea2bd445
cecade0a02ecdf04
064b0a8715e523ca
3ae01e1bd4233310
e6bd9793e1c9d510
d3c006eed8e14001
f2c7fee5042a0c0d
22ed01fa2af51cba
1af122b9e3f117db
07f436fb3a16bcef
154a6b51fdf214f9
b059d8ddd1fae1e6
f8fadb2714d9dbf3
cde4e7e036e72a10
dc4342fc1ae9ffcd
a1c94a032f09d9d2
d236399bede805b4
f847c802d9da70be
2f1fad8dff1c20b7
4ffefcfbd71aebe1
26061f5fe94114db
