4392da01e0205ffb
c926567d15f611a1
701c1aeff5e5d8ed
4fcabf20fefee5cf
1cb00f0f1e202025
e517c4a80ce5fad4
c0bc0b0c23f26020
47cd367fe602e0c3
fd1820132ce0dd2b
21dc203d201c0960
f6360f1cd311673a
3dd4d3b6dc3af2d6
dec0f718da0f4112
c826382d0c0ef0c4
db4c061914f9f00f
d313a992f6fddea8
55f8e60c31fa203c
ead5e3f1e616f2a6
2038fef0e0e4c433
f7f30b7d132ce519
2af8e312ec15bb3c
350bbb36ec3aedb1
cba523ff0602aa0b
38b935e61db2f553
3a31e4043221e03e
c4c6ee37fe2bed27
20b60b29e6ec5ff0
2acaee06ff3f0918
98460b0df7f2b2f5
ffce18a202b703c7
02f0d40af11a5207
40ef4149fa4403c1
14b513f92e0fe9cf
cf37ff1bf3fa22e6
e3e72c01e507f9cf
cf35d206f41906ee
1ea819190b05f1d0
d925dc06e3f6dc02
01e2f0f3e60db6fa
d332df101d2d16c3
5addedebf015d436
2fbeceb3df01df06
1fc21124f00fe5f4
f0c32c21fae5159b
b4d51bd80705bae7
eeb1c0451105062c
29da28140b16ad28
0510693811e9d002
