59442af5dbef2f1f
41faddf8161e1747
b383f7fb25143211
2d3ab10ce320234b
39f80d062a24b3d6
d3ca1830f9e1fdc4
2e11dc0419eba2d4
02e9e1390be407d2
e247ed12d710ea0d
f9d13268ee32d7fb
084a1e06231589d2
a5421519e2f4e0ec
edf9d7f5e9feb113
e54508340df0fded
e714e007cbf32812
abe2c423e0d4d027
a1af3d033eed2ad1
e522c208e8dc204d
ddcd0bf1d3ed4aef
4bd97abaeed7f102
c4220bf9361eda3b
effd369af8091f09
97f3fd01cefeeac9
4025da910dc3f8be
5e1618eb08fd6511
1511e001172edc4c
d0bff31beceb0a3a
0925074bdf37db56
13c5d8161f0340ee
45b4474f07c1d7bf
57070cf3ebead2e7
fa06359bf2c5163d
abe7d81bdddedff7
2e29438bf2450f96
c7dc22e723d1de25
57b80f9debb6edb8
b051f00f1de75edf
1e470aab14fcdcec
a9b7fefd0bde21c4
f7f8a81d0ec5dd3d
f9baee1e23ecf7e5
341a2d10fc26d64f
c0210ef70a1dd804
1a3cf39d083b2adb
50dcf3f1ee15f1d1
f6ef1c3b060ff5a0
ee0c210c1c1e4c35
3e280235e00ccf02
