edd8210df9f5fcf5
f4e7f00cfd0efd18
0bf9d3e6e5f506ff
ba1810d0fefaf1f3
f8f20a14f40907fd
fee0393410d102f1
1508f323d7e60e19
4cdb102907f9e91e
06f0fb1506f9000b
afe1df3be9e8f2ae
f4f5050f2ef21703
fe55d12eeff52e17
010413220e241ff0
1606002527cc0ffc
dd0133181aee1213
4930acf707efd5e9
dff621150d232103
0fe9e5c4161b1fc2
e3e32808edf70cd4
11f7da091221f911
eeeaddde2c3515ef
64f8eecd212512fa
d7e62af0f4f7070f
e3e0c6fffb2dd1df
f3fb200317ecf115
d709fd52221ae50e
161e2dfee70be6eb
09310fc3dd0714ed
ee080cf5ebc8d311
a8f0f0de33bffd22
fc0b00f5f1edfef4
271111e2eae3e7ed
e01d1b0de115cbf6
29f6c0d20d2c11cb
122816e0e3f8ea00
e7b2fe00f52bfdfe
fef20a3ad806e5e8
e01c62fd150d04f9
0207211dfce2ec0e
02e0c005e716fae3
0fe60f15ffd229ed
17cebbe62221e63f
170fdbfce9ec09fb
fd13dcf903f63908
fc0c0329fd10da01
5308dacdcaf7ecb4
e1e81f151ef816fe
10dbd9f7f30b00ff
e5d7cf3a09f3e003
3920f7e81109d600
e404f90408f9ff19
5501d31efbff33ed
49f8ec480a1913f5
f8086e0ce1160afd
e5e42beffef21531
f8b9db04f3f638e4
f2dc311afe1630f9
df0a5311d10c0424
ebefde19f7faec0c
a217cf1e0c201c0e
0fdc3819ecee39f2
db0cf3fbf2e301e9
11d604efd2eb07fb
22e615f1f5e1240b
e009efed2012e003
31d9295107f00cf1
ef13db010eff0a23
dee6c7ccec0e2c0d
03e4d3ebebea14eb
3f022a3cca4af8d4
ecfd082427f61a09
3f56b80102f1f5eb
ef012fe219f026f4
af0a0efe18011932
fd35c01af7f1d7db
09f2e9f7f5f2eae5
ead0290714d66017
010ba7eef1f00541
e614dbf60212fef5
0cd718e8ef02ec00
08d1c30bfdf7c813
fb1d12c6df411f1e
e8e620f0e002ef17
36edc7e8100e3bf2
d11f082ef604cd1e
c1f5d9400df2f2b1
ebeaff0d20f003ed
1031f8eb110f2003
03fbeb231529d50b
35043ce9cc0cfae6
0a00dbf5f5fbfa08
f40c09e50bd5e3f8
0d261a3e020ff314
f72962fcd323180a
11e9e80bf1ef0a1b
2ec7bacbe4131ef1
d0ffe3110dd80aeb
f0f9d333b8cff1bd
e915070b1500f3eb
1141ba0af712ead8
c4f714fdea25f308
d90232c6e4d81c17
13ff27f104f2fedf
cb071e3304211605
0bfc08ee0d26f8e9
1cff48260ccbeb23
06e416e9d702f32e
27050dcfd705080c
f2dc1121f7f4f006
a907c831bbbdff02
dd1010ee1a0708dd
e30b0efc08fd01e5
ec0afa21df090210
29fded0eddd1d9c4
02ea28f8f1f2e435
ece6c80dfde728e4
c2f6dce51acc1910
280dfd0d01c2e23e
fff5efd3fbf1e41a
e32bea15040c1b1b
ff00eb20f403f9f9
ddfbfcf6c33a0fd4
e8f21602270308de
292e0cdbff28eaf9
ce0b11caf108fe18
dd0d21f5c811eac5
fcebe0041f1b05e2
4b2703ea12f30e0d
f4dc12e41de3e0fa
2a28ce18d524fef3
dcfc0512f7120bee
fe4ed4dcfeedff18
eae6e9d8edd21812
f00434f9ec04e50c
1d1412eaf8edf5f0
cc02fac003df2325
df1c2bd52b070512
c2e30a20f8e2e7a3
f6f221edfd1002e7
4f49b910f5062819
cafb04ff0225e3eb
deff45e10c1320c8
f0e716e71e0013ff
100aa2c609e013f1
0512f20e0f1d0cf4
20d110becbf00bba
da0223f31bfe1413
024caff01715dc13
3208dc04122511ff
16e821d1113338c3
da01352a08101df6
1c1bc2f20b2411e5
35f6ca2a11dcfe06
c60338ee27450954
e60614e3ef08f418
27baa0e0f30b28fb
04f007eb06db200e
a32ceab2feb8cb15
0cf4e1f113f6f5e5
e1e4f61f03f71ae5
0df0e112e9fdc415
c50fc144cd1c1a27
06fb27e31e050315
d8fd0f05f2161403
0a0bd915ec15ddfd
f9f1eb1a26290fce
0dcf1116fc09fc37
66e5bd24e5ff41d9
fa182a0dfbcbec01
f7d9c3e41cd8160f
f81a06f70a030cec
17f93601f6140c03
23e6d01708f4090c
1d1143dd18ce37e9
eb021ee615ea1bf3
253514f517190101
05e4fcf4d0e3160c
071e6be4e933df11
e8fd0a100afbe227
f6aba8cff91f4318
3bf4c322da28eb15
c31910a317e9e8d4
f5f41c1719080e19
fe04d0020b0f4403
07c91d26101625f4
d2e62bcedddbfd06
e401f1270104e602
254c070713140f0b
2a102508ff1cf9f1
f001c92420fbf81a
110718e1eb0d0aff
411e1bd4f4ff1dfb
28ed07f0f7e7da01
1eee4724cad7f5e4
2202fe11de08f32b
03e5dbd4f5010bec
cefbd8000940d806
22cf371c051ef5eb
e5e1ff060f1d11de
0ce0ffed13000908
e1ebd12604d237f3
08f6e52b22d50afb
eb17c7daee0701fd
e60fc827e2e9e812
f0fe011108050306
0e0c0a44cefad8d9
e02206e6f4f5e308
a74d1ed6ece1f912
4314ef19f214fcf9
3bf41018272b22b1
f2ce04e6e8f2fb09
f6ddc710f2fdfeeb
fef61b0e0305f905
47ff1b44dbfd06e8
e8effe131608f116
4ed1fc181edf0b0d
14092517060815e8
5602d82b0fe71621
121d1114f8f316fb
41d9bbda072ecdcf
e130ca060ff9ccfa
4bec4810df1ef3e0
1702f6da1d02ff26
d60dca0cfb0513f7
08f8e306f72019fb
cee803bad0061007
051a0e21e80efaef
5a0aca10112c27e7
00fafef2f3f9f7f9
3017b3d6e80410f9
eb0505141afb190c
0e2afbe508f3f214
f50bc6f8fd1610f9
edf8de482213f836
e8160cd40501f228
4af6cefcff1c3707
de0be70611e32bed
9c191cd1e4d303bd
ee2007f3e60415df
fb49e312deda32de
fce9c4ecdfe8cf10
22295409d3d110e8
f4f1eadc0601092e
e9baceedfeeb0e01
0af5071cfff81ff2
bff4bd23ec10013b
0dfbd5ef06f601fb
aa45e5eff0ef1cf2
24120e240107dd20
17f73cd9c11b310d
f41f1127f50209f2
1cc80a161e12c904
d706d40af302fdf2
2308cb0200fd1916
ecf92708010efdf1
080ae6f4181dd5e2
07de0e170ced26ef
27ecc6f2d9f2f4cd
fb03e00d04fe1002
f0d8b4d8100a2f0e
dd26dafaef0be00e
20051b41f30f19cb
e5f51eeee5fbede6
41ebb7b901122b0d
1ff732e619fbd715
ea080e27db0920e6
e90ee6f2f8ee0de2
ddee2deff3e4eae4
d40bfdf823f50313
c60ff43ff0fbf8ce
00dcfddeecf2ef12
ba50d7df0c18131b
f6eb07e41ae119fd
18f0310dea2c01fc
f413eaf5eb0a0e10
dc41caf8f51019db
1df9dc07ec1e0314
3701fd01c90003f3
f1e81e13351a15fb
ef09021703f808f0
362400f70406d503
2e0d202e1dee1ed0
1cf5f5e7e9fa15e0
0318ce1cfbc62fe7
2cf0d0f4eac2d8ee
ea163dbef722e725
de080903f30be9d8
4226d404fec41b14
f703e0eae40f030d
3b0a25f21520ebeb
01221e120d1217e2
321d07ebecfe24f5
1217d530cbf6c9fd
26f344c82b0304fc
0af3ebe2e1e6e5fa
53bdcafb061b480e
f1172317f70e0cf6
1edb114a2bf91bf0
fe0ff301fc0afb07
0214cbeb02e6da0d
2721f1e7e20122ec
17f4d54ae40f1825
e62bdf00ff0b060a
3d3dda0a130ff40e
100c17f6070ecfee
d92a200cecd6e3c6
f3da0f0520e7100a
23b9fbefecea27f4
f3e7ccf9de06fbea
39f2360bd6e4e3ff
0c1a28f311e2ffeb
0fcee3ecfe201502
e9e4f5cb20f9f501
0af805e7ccc8e897
f4e11ffffcfd10d6
07f1f4ef030cd810
ecf6e6e9eb1c0204
e6103ddc1bff00d6
f90b10050e091106
2fbdaedcfc11f100
1129ff1d06e5ceec
2d1d0222ce240203
0dff1e0401f913fc
3cba24cbf7e405e4
cad3ce11053b15f7
3b14bc1fd6d1fdbe
050be61114090bf3
5df614fd0e1cd8e5
e2edf6051dfc3af6
32f4fd9f10021721
0832110ee8ecfa10
0e300b06ecf63117
e0ef21d3f8e70512
2bec2ed80204e8c7
ef1605fce7fe13ef
d603f6d0060a03e3
e1071c2bd918dc07
e60d38b5ccd212c0
e316e4f6e2f704ee
26f6bbddf0ef06fd
bf0cf2effc090cf6
fbe1facee8dc16f8
e22408e4ec0319da
4d41060ceefe1f12
dffc23e1e73616f8
25ea2cc1c2072210
f1f11219170b18d8
da30be051f1613d0
d1f50420fa061ff0
3d10de11cae808e1
e80715e300f9e714
6ff3b610f2233d11
03e623da1512dd0d
24050faf0cf41216
0727fb212016161b
f341f930fe2f2ef2
d62223fe13e2150a
131714f6e7ec0d12
19ed0eee06fa1c25
c5cd42d6e311eafb
3113bc04f6f8b304
48f156da290d2ed4
1eedfcee01fa17ee
de0afede0de6eae1
12dbdad21b1af709
06d1f00400211d17
153219f6e2f8ef0d
b04723eb1525d8f3
30f6163fe7fbe2fa
30fd3abdd1cde0b1
08f619ecf90ae92c
e0adeb11e7ef12dd
1e11dc171ced05ef
be0e001fd9cc0902
fa1b02ffffea180b
c2e8f3c0f903f51c
c6210007ff19f116
ece003cef2e50733
0f12f7210410ec05
1229d01706041df3
0508cb0f0f2e2603
02170deddd01f4d4
0d1ade211af2f900
eaeabc36eff7ddec
