0df71b0a1928d313
5ff1cf2a236d10c8
131d21efeffb1f0e
5dce00d719260edf
102eda3602ea09ef
d7f03031fafbe1f1
daefe0fb0addeedc
ca3ddc0d0ffa2116
29f1050df319c8ff
dbd74dbdf0e21f28
e40613f7100303f1
1ff8fce80beadaff
01deeefcf808faf2
fe0c58b9de210bd5
f8fce31cfaed1cf8
eddb07fe0be032fb
22071bed011bef20
0a112efc1f16fd1a
ea0531f0effff41c
141b03feefe9e1e2
0206cb0905030d19
f00ce81317fddf2e
080d2ffef1040a19
36d80919f80fe3da
040e251a21e1f4e9
38fb2afa2d1bfde6
fe210cefdb0be805
ab3a30e6ea0a1ae4
3115d3ecf5e8d3e4
04fb3c0032d412e2
170a10efe118f9d3
ec0fd0130b07d810
48070bd50fbbc613
1419f9eceaef21ef
0008e2f4cdf81210
18fa16e41121fce1
33f60527eee7ffec
d714fbdcdada09ae
1006feddfd0a0c08
fc1ffb0fe719ed06
381222290f04eae6
600e38ba4708ea40
0be6fd07f70b04e0
6a2dc617fb1327f2
f2dbfdf3f6e5f91c
17de08151e3d1b0d
e934eedce119171e
cbe128df043801eb
2622d414e513e7ec
d20a6427d8040ad4
fe05f5ea08e7f2f3
0c17e02bdce01306
561dc80cf206d814
210004d62be1e4b6
e11510f0f3fdf518
42f920dd00eee20a
2fd7ea121c3d1ef5
2615da28e21503c1
02ec09001c1007e4
4214d0fef000edd4
0e2a13fe03e22c02
fd1cdbc101bfe3bb
07fa0ee105fefe05
e32ade06f71bfd14
35ea10ede8ddc6f1
282107ed03d615f7
12f113dde0ebfff7
02e0ebf403040714
1ee2f8ce1fe0f8fe
4aecff2908371216
05fcf508e814f4f7
07312ce3080edc06
030b0c0424fdf7fb
400c232b072e31ca
efe114241ffd1df1
51c6cc07fa050be2
11dce1fd060317ed
4ee83712eedc0ae9
061423230d041504
3e2aeb171b0927ee
12cf08f0e0ecdd0e
25203bb8e90af337
16cc1fe3fb000d11
651ef1e80c183005
0910e922f30a0c1c
230a14f82e3c1636
f11730e90f0f061a
0fbcf3e201091dd6
f300e6ea10d7e507
e202232ef74bf73b
101d13e909f7ecf2
df08140aecfbfade
f8fcecdffff4b4f0
1d1449ffe4b5f5cf
210f0607d9fc172d
df2d1f2207ef4efc
1bdc132d14e73419
1306ed110832f64f
01f2daf112010e1f
f00b520eee0f1fe0
e2e127e2fdf32312
a02f17fdcf1210e1
0a1b0c1208fceee3
4fe8f61c09f3fee8
03102dfeffcb11ec
1c2312c52aea1313
def31a06fff7dfdd
f347dcebf5e263f1
1afde7002018e01a
1819cee2fb2ae1df
e2edfe0ef3fc0d16
1ce6f5eee403f911
51e3d81716e8d11b
30fe24e7f02910cb
e5f51101ecf80a25
0fd9d313f21b3df2
24f510dbe1d83912
0f17d9cdf8fd0a06
02040addeafff7ee
cc3be316e8f60deb
21fedeb52cd4dc24
49e11e27d7f7e3d9
d83103f10c0dfa1d
a9f4cee71a2bec04
ccf9ff061306d219
ee13174703040ad8
061b2d06080febfc
362bfed4f9191bef
0f081014ea160d0e
320c12d5e7f223f7
f1e70ffc140af406
3d0fcf030604f2fb
12eb421424fd10ea
35f3ca16ca090f26
0f28ff0c01edee0e
2ce229d703f13d06
fad8daed1406e5f6
0edb57c1bbfce92a
f408290a30fe13d2
4e14280605e305d6
f1f4f0f807d40a01
eb2a0c2c0def122e
021be800eb11f609
e712e1eef6daf1f5
270fde0303110c28
39e7cca720ff032f
0f14eb1fe41326d3
dec5df2216f30f05
fad3b5cb00c8dc1f
d1e2b4183708f2f0
0124fff5eb2d1f13
c9c829e9fdfd06f2
35f1130001d1ab0e
04f735340d110de1
f2fcf3e9c7111fec
12021a32f9fe3304
16dfe32dee15dffd
ca1e3005de08301c
f1190906eefa00d4
42d207ecf4cf3c05
fc1b070205db150d
f410fbdee630f4b8
fa0311e2e9f919ea
e741c035f4e7f6ea
3bf2360ef608b6ef
f90848e0e8f404f0
f211fbdfe8f2f2ff
0403dbea00e535e5
f423d922e00aef10
67e00bca08b71994
e82915e716f215dc
ce44092e06152710
da1805d60b11fcfb
e0fb429defddffff
0e2eed14dd1d0114
d93efa04fcf4f3e8
4b070a28f9dcbdfa
3b1a502bf21ae3ea
031618140b000e1e
1fb40a100aef4001
33d5fd29e4ea05fc
142f5a150b15e325
00d8edf7d8ee0a13
41f40ee7e303210b
e50ece141d3ade22
2bdd0f111d232be6
e0074e313b191018
e1071e341020eee0
e81d072402f611f8
f81a07f322e1ddca
0ae5d402f1e1f711
c1d0f910e2ea1ce9
051d15e6190ae407
9eebba40d916f523
0206e9ddf9edfd1e
441402d5f4e0d6f2
f718e0e81ddde113
3bf5b43af33df747
19f91bfbd10823f4
caf0d4dcfaebdfed
1cd2cd14e91800fe
fef211be0b1e3bc2
f6fb42ff1f1b020f
29f3ed160aff15e8
e026dbedf50cd4e0
1ff91d38bdeff1c7
e8120111f5f7e9da
cb0b05f1ff0c160c
27eedc15f80bb8f1
d1f7dac6cbfae409
1a01f2dedeedfb17
420b1e0610eb37e1
2515ddfd1316ed08
d31510370e0de41b
faeeedfb0df7001d
27db31101a1df908
f6e3c3ef1414d120
c921c0d4f20312f2
01f50edefe1420f7
d20f343310f9d1d0
3b34e4e706d5d303
28ee242d10e50fd3
f4f3120cefe4fc18
61bb34010427eadd
0f1909f80f052012
0208cb2b2c15ed20
0f2b08d6f70f0af6
e3f8dfe91031d7ef
19032224f8f80706
b2e72a37d917edd8
0d03caf10805f50c
494f04d2e8f00b02
11eb0b14e1f9b7f9
d926232223e5ffe8
18041cdfe1fae2e4
0e091d0bf31519eb
fbf7cee2243abbff
30efd515131503cf
e50b4b1b2dfdf619
42cdc905143fcee1
fd1cfbfde00cb5f2
f52e19bd0931df23
e8f6f813fdfc0afa
61e60a16ec1a4914
0b1418200aeaf1e7
f9050e33ea1df7a1
e2eb0ae5f20cff08
21e8f3dadef2d101
e4d4e9edeeeb2511
c5e40bc904d7e40d
041e030fe30c0403
1c101f2315f401fc
cdebf30924f60401
3a0df022090b1d27
dd1bf3f5eb1af0f9
eafb1e1010191fe0
ef17eecc18112521
c4e90ab6ebff17cc
100201241406211b
eabf070a01e01be4
2f060426efd912e4
c1fdfbe61df2e4b5
0bf70402e8ed0719
bc5ecfc3efe81ff7
20e0d6f40504f915
04d84f98ef18f51e
e9181b05f2080efa
c3164e11fa18ed15
25eb18cef314f1fd
c40a0639dadd0cf4
0ef4e1f1dfeb0ce2
d9f6f4160d1624ef
f70911ec061e39f1
2af7f1edfc1c1b2e
04f219f903010306
d8e61c10f9f5fafd
1be3ddbe260e10f8
c207bfa324e50f14
d31aeb0de1ff23d4
9f2806e922e2c809
1ef7f5de07eceaf8
01191ce12fc9efee
f31eee03ff0f22ea
1e20263003de3906
46f30b270909edf0
31e4d0a6f4f0f2c6
fe16fcf10dfce9f7
da28ff07fbddfffa
0ef422f1070eda06
06f2fb21f2e419e6
0103d81af510f4f9
f0d1d2240d0932f3
f42104310cd5be05
11f6e615132bec0d
0edf2915ee10f8f1
3d21d20fed1c551c
080cebd40b2205f9
0bfd324700ba26d8
f3f5f4db01ed00f2
0a3b02ecfcffeffc
d2d2c60925eaf6f6
eafb02c1f224094c
e9ea2102f00407de
28ec06f3f6db0cea
421bd5ffd90fdfed
e80752eddb1ed9ba
10f227edf703e105
23d8f5faf1fe42d8
12fa1805f0ecef08
092130ce27ec08cf
0119f7fedee806f0
2fd4bce2ec2314f8
25fe17c3fcee2f1b
06e00e96bbfb0d1f
100321151107140d
4e0925361717dbe9
351adc37fc0de509
271e0f3404ff11b7
e709daf9dcf1f427
2806eec30121d2f0
00fd000be6e9ba0d
aae7f40ce22627dd
f1fd240a05f5fa20
e3082bf2011d381c
0eeedfed21f01bf0
0319d3cd0eef2305
dc0feb16042414fc
ad0ed7f627efd500
eb02c30c0c231906
eb0dc6e419c8f6d8
f2061726350efb14
18aa0f13281c02f7
07032a2404011ce4
1f04de10e0252121
1f02e414f70cf612
1929ffe812402c09
20f20813f5fbec1a
f9125306f32ae7d0
0f170e0bfaf4eaf0
4607ebf0e72037d5
1fe732fbea1c47f2
d113331ed3ca0e55
e41b152ae613eee4
ebd319fcfbe0ea0a
2ed507e509fb1422
b70fbbc521f6ea33
0b25e829f01325f1
c5c21d37241422dc
ef0a0628fd10e1f9
3af557f41e0df02b
1913e708df0e1c05
d718ea0cf1094b04
e2e1ff051421e725
3de7d91d11e3fa54
e41414161b190803
b81a053c1dfdcbef
e3f404f5030f0bee
ecebf2fee3baf6f6
0df411ec0ee511fa
0f3f29cae4f9ff1e
2d1107d90be8c4ed
02f4d1f21506e7cc
f40a0213dc05fa10
f71b1ffa03e5e1f9
e2d416f6f918ea19
3c00df0c030b0cb5
0d1018101e12fcfc
4cf20145fd1d1e07
22dee72d06faca00
0bfd1dd916050cdd
feeb09fd06ff0e16
4cb8cefee90a2cd9
1b131aff13fad0f2
06f34b0712fce4df
fa2bf30305f8f1e4
3442f4cadaf7d7ea
19f9e0dc03d82bfb
d621111d2024f47f
e221dd1fd904edd6
ece8ccf71c001411
2512dfbe16181028
d1e2e6b0142a0b4f
dc0d35fd14fd2608
42bdd3002728cf07
