1ef3f934f9ddd8ea
3de320212e4bd626
ed0ce8f61006fdce
c64bbe21dd283b08
1e2b1301e1191103
d30b1528edfcf005
f50f0af5ece6fedd
dfed36d012fccc0a
d9f0d2edf6de0e12
b5e706330cfa0eff
e7350f0f28fc1bfd
c63d1d2b02f3daea
e91b23f9ee28cf14
c7e60ad7da1c1604
0df3f4190fee05fa
0ffbf4ed00f01807
fde2ddfc032ceafe
5fe1e6c6fffc35cb
f1e222f322f4fada
14c3ef0a10fef4e5
26061e2f3af2c5ff
fe0905c52f4212cc
02e305f3091efce6
06d1091a164016fa
03ecf2f7f9edcafd
ee01e64b163cd402
030114f7ecef0f05
f530de03ee08d6dc
f1fd27d6e4f6f104
240d1aef1226e9c3
0e17f81300ee08f1
d2eec7eafee0cde7
fee9ff2602d91702
f9fdca23ed0bed1a
0708fd0503fbf6e4
29230e300ee52df6
220ffc10fdfaef0c
26eb27372afff7d8
eff9f401e0f505fc
12d6f2e5ff12f9e5
f5e6f2f2fe15f616
1ef5de291502fadd
f801e308faf7ebf1
ca2df802dbeefe06
d7f81ddc2318c72d
1cf40547c8520d2a
092426ec05f71815
25f1c3ecf846fee0
451f1e2f0321cbf4
f612dd14ef0ce336
01d7edf0f3f113ee
ce0dbde9e3e92405
1dd3d7250327b418
ce174fc7fae80dd8
01eceaffe6faed28
6722ef1ef50c3be1
22cbd520e811f61a
cbf1f51e1c08f9f5
fbe4f7fa0efb06df
fb38f3fb18eb04e5
f0111308ded10efb
130c203de0c0e6ca
180d08d5e6ede00a
2f19d3f0f5e8f112
26020ed218fd1aec
d0320ee418e8ffd2
e61f1d13e6f3f014
c3dbdd130ffc19fe
e6e8d3d23208101f
3af2c3f91731e705
0ae5161508ff0ff5
5b04070ded1d0803
e51b0325e331320c
2ceefe38ef19ec1f
06e6eb13fd1300ff
e5f7012118edeafe
d8dbebe6e9004df0
cbe5e1f3e3cbd644
df0ee3fb0104f9e3
e055f706eee52bec
1eca111edce6bd14
e524531aef3e2aff
e2ccec14f0061623
ddd1ca1cebf646f4
d9e4c9e4ee37b425
39f83d33f65e20c5
080010e52217110f
fc24fe03f63ddbe5
09ec08f0351aea13
59d4dc45e05a22c8
e4082f050c0a1703
554ec0eaef08ff0a
e2effd2fee03fc0c
bd241e0e211ae3e4
26ede7080cea0bfb
13f21ad1eb0332e1
c6d5d80f0900c0f5
27030411c0f81aee
0804eb020e020de9
b52e29dc140d1ad5
0ceb04f8defc1a15
1fec19291edafde3
f73bfefe1afcfdf2
32e0e106ecece9df
ff2b2deedbde22f5
0afadf12def20613
df15ff0309001a1e
152ed6e5091b3b06
070dece8081105f3
b9e8e4d1bebaea2b
e910e2e9e60318da
4c2c2d1d07d6d9f1
0ffafdf0f0fbc4ed
2f34d8a227cef432
1effe814ebeaf122
42d0e7f5fd12fbf0
e3e2d611e6f3050d
120cd406e8d31ad9
121bd9fd0ceb1c07
ebf2e5fa0016e8e8
dbf2dadf231ee00f
39e225cf1b162ead
f3fc2d1f1b0b17e6
f22c05eef1ff270e
dceefe0311d4c51b
d90fbcd1071115e7
f2f1e2f911f5f3ee
ba44d62700ecf8fa
cf09e8f6e7e41219
dae216ca00bf19c8
ef2405f009190ee0
06d5d3f908e3daf0
06f924e109d3fb00
faf9b225d2c608b1
f8e504eacef401ef
e424e9f8eaf90119
d8defce126d7ceff
230f4ff9ff10f2dd
112f0b09f911edea
cd2d1e10140adadd
dddbec180612eef0
01ee15ebf42af597
eb18f527050a1e04
fddcb71718f32af3
22ff14f7e4efda19
1c0def270beb1902
d9152623200520eb
f4c7d4011127fafe
19cb040d03faea15
3b09272b1ff00622
140438222b2103eb
edeccc571837f7dc
d81916fa14fa0014
4a1428e5ed0ef815
05f30ee00b131404
ce32bf0d0f17fc10
291201e512dbcfda
f52706e10bcc19e1
0cedc80605fbffef
160dcde706f035ea
fbef39fcf617ccf8
fff51021dc001bac
17141e28dcf2f7eb
10d8051905e0f5f0
36282135e6dd0718
fc0b1d3d0cfff323
1ecf150014ed00fb
0e02bc29f3fe1d0f
0b0908eefd0ed217
2c0532d621d9f0c9
20fe08edf9f4f004
12e6c4e7f81acd0e
2a0cf3d9f8f91317
d6031301bd030d05
e2191a26fc1e200e
e715ea421ef2c6fa
2307d129ffe7f5ef
dd320bf2f527e5e5
fbf3e9deddea0223
31f6e4e5eaf5e0f1
02191535fb19d218
e2fdf0c00cfc163f
e003280b0afded2e
d314b0defaedfc17
38fac803fc001509
081ec12d03f3e4eb
1406eaefea12ece0
d70aff07ef0a1011
040ad4f311dcfa08
faffc1e4f7dcf6eb
05d71de9fdffedfa
9fc2c7e9f71cfd11
3cfa37d6ec16e608
0b33d35700e2f80e
ef01eef50bf4faef
d7d7191eecd20f11
ce11fed715ffc526
efe50c1fec07fda6
06013e0df90f1bdc
5ee7f7fd1f16f2e5
ef1ed2e0e6f9d8e9
151d42d107120e2a
f2fe1cfe0afbeb10
0eb2b8d81a12f2e4
e9e5281df8d923f5
f9d010d80edde0af
152213ded7f60ae2
cd4c0ff201eaec19
3adec416dfedd60d
d1184ac2d92af6a4
0e0afd1ae40104f0
12dbeee10d01fcdd
121bfb12f70d1ef6
eed4c5d4cbd219d4
fd22130ff2171fed
1622231c0fec32f7
e2fa1ad70e3a0908
ea0bc01edee03bc3
12da37201915feee
6f0eac140b3edce4
2240021f0f0d070e
3c1d55c3fb0a1abb
02d7ede2fbe413de
f7e9cfcaed15d001
ce021b19f50709fc
310a250403592643
e6ea1c11f511f7f0
08e31adcff1ff1e5
f9ed1fe0ebd1f4f3
15f6d9c319bbde41
f6eafff613e6f2ed
c2fa2aec0d111617
e204eb0318e6cb10
fafc3e3611dd24f7
20e72e0debf6ec0f
e0e2c7dfeedf35f3
fdd8d4250513eaed
55dbe42a1448e3e9
0fe8f81a1cf21912
f617cadb0610e604
131bf932ea0ec1fa
1d0ce2c4e01bd9f7
12cadadb07f30316
2be222e0fffaf0ea
10221e11fdec1407
e2d6e3fdefd513b1
e8eb20e3e1e8ea0f
b2f7f1c600d6e5ed
37d9270ce524082a
e4f044f3f00cfd16
e1ed103c341d2adb
04c9d91b21011ddf
cf0d18c72121dffe
37f04bb9d8050ac5
dd26ed1b201d08fa
d716d130103219ee
13e8d9280d24de14
1debe50007bfeced
fcf8e0e7f6f2f4ee
43f327ff140ceef9
f4041ae72302b0f6
d3e9af08e0e91bee
1be4eef9cce9eb2a
34fadcd1eb080d00
14f627df1601e40b
01fff4b9ded61aeb
fd1f0bfcdf06e7d1
1a1bdbf2f3e9f50f
112a14ebfecf1408
0af0f82acfdf0ac8
eeeee9f2fbe60a0d
bfe7eb2a13e3ece6
df09d2fcf0f023f2
4008de25f82bfc26
f622db1516f105f0
14e2faf3f6f2dfe6
dfe5e7d606fe09fa
da0df5ebf92406d9
0b14eb1d2008fae6
22c3c76a211930e6
0312c10c0710c106
111d1f35effdf0f0
e6160bfb1816ff12
ed00f60103ff0bfa
2e0025dc19e8fd03
44ebd0b0d7cf1639
e60ce415fa020c0e
2afc9ae1041729e5
e7111ce1f121f913
33f0fe3b1ef80baf
efdcede9e5fc0f1c
0bfc12eff4d7dff8
542fd531f3ebd411
e32d5cf1ead5fbf7
e5e3f0f205f3f60a
62d022c4091d280e
0105ffeef50ff5f9
45e31350de0503b7
20e80f161d08f403
3af6c71a08efea14
c7e0faeee9150523
d7dfe22c03dd1e05
1206031914180ce6
013cfc231ceadd0e
1e12d83fe30ddafa
27f7180702c10daf
e5d6fa100b0ef318
3fdc100afc2426df
f818ffe0f8dce3fa
f62f32beee35f8eb
e806eefceefd1af2
2129f0ff041e02e8
160c03c816f1051b
f41d00af10ba1a19
e411d9ece2fd03ed
bbdaea2e1bfa05ee
1adbf2e6fe15fc11
282bae333d25e4a1
07081305f7000df5
fdbc0aedf9fceb0e
2be82a020512f9f0
be31fd50ef11e9ed
fc16e807e7f7ed0a
05ba04f30b02d11b
d5dac2f11900fb25
000ec3b0d2e03906
f9fd012d391d2512
fdde184f1efa1d12
efe0fa00122517e8
1f0be80bffdb0552
0d19e90af1f0e5d4
1fe4e62df2f814e1
fa12d11f311fd8fc
23ec2b120f3010eb
180dfae70d1101f2
d633eed4e936e508
44f6e006f8e9acee
b737442b20211619
0ad7edece8e2e9f6
55dee71bef173edd
df00e7e5ef022821
cae6dcc0ee1d1701
1325fd0613120702
f70623151e07e104
26ece3f21511180f
e114e9b9eb011407
1027113a3c081cf7
64092652311d0706
1fecff0fdf210306
fb39fcbd23e405d7
20e20dfbdd0bf60b
3aeaf212f80308f4
14f6fe1fecf01ff8
26f5d2c71dce172e
e10bfd052018270e
2cdbef15051226fd
ea16f8070607070a
dc04b5cdfaf90bfe
f209de0dfff3ee03
fc2937f0f0fe0c20
3d0ac709fef0a4ea
d61f42db162d259b
010afb19f415eff2
ff1dcddbf9ed30df
f71c0621fb1c2df9
38de14d30efc3ac8
de2b2de502160bf5
4ce1e9100e10e40b
461ec93a1007f3ee
3333eafb15bff931
e8e5dffbfded03e6
16c80304f8012f13
0c12ea0d0ff6f317
f1d305140c27faf1
1209fada070cf215
0b2df8e509e6da04
1417e0e2e5e8e221
04ded5fad1d9e4d6
ddf6e23e01f503de
05e42c17f8dbf4f2
20dc0d1000ef0a27
cdffd8a7ddd736e5
d72a2a0aee1b1bfb
cce0cef315ed2ae8
