1b1bf2f50720ecf8
fef002ccf5f9d4fe
d1160405e5c5fb04
01e7050aeaf1e811
111407110cc3ee1f
13cef1f50505230a
d1eae907efa904f2
f82712f611f4dffe
100e070507e6ff0a
e84afe1200fcdefe
0ffa0c10fdcb0f44
1016f912fb1205dd
0400161603d9e110
fc2e13d1e01317f2
d7ecfc1fe79f1fb2
1ee8fb1b091001f8
48fb05f70652f20e
074ef7ef202a1409
fd1fed1cf74efae3
0a01ee010ffe02fb
eae408e01d0805ec
eef2ed0603fde3e6
251ffa0f1fa5173d
ffff0a08170afd12
d501e5190df10f04
e9e5f40cf7012408
060f100bf40c0cd7
fc06eed70cf60ee9
20dcf2fffaf804e4
e7d403f011f915ee
24ed12e3e70302cf
04f409dcdfe2f2f9
d80f06e1f0f30d16
11eaf6f4f80a0912
37f1f7f6095e11db
f6240aff1dfb0013
0de40306f74502db
ea33f12d180406e8
cc121c22082a07ca
03f0ff21300d1d03
2bdf0a020efae4fb
fa2ef6eaff02d3ef
c5fbf316ffd5010e
f6daf907f406faf5
261b0e0700a30413
f4fbf70412ef0511
07f5e60100fcea98
ebe4130924eff8df
23f017f805d3ef09
f00e1002e3dceeeb
04f7090215b70c0b
13fdf7fffa0b15f1
0aef1fe80ee1eaed
05ceee00d61af406
1302190efc04f9d2
fc1e02f302f3f6fc
0122fd061933edee
fb221be4f21f1712
03f3060a0a3806e4
f904fded08110aff
0bebff0d10c2f611
12dcd8f5ef031f0d
1d05dcf8fd96ec2e
f0eff6cb1a05e2fc
2514fe15ede1130e
f5faf706050f1af6
f6f4e20adbbb0af8
f0e30c041de3f406
1404f6eb061d04ff
f805ed2cff140eee
3b1507f4f01a0349
f9110aedf303fff4
36fc0b0303ba190c
0115f1cbe9ec20fc
f7e7e2f503e3fba6
f504f8eaf5050eda
f805f2ecfb08fa08
03e000c7e7192e12
dfed0308ec5b14da
052bedeaeff007df
43e2050e0f190df5
fd1feb2b11190ee9
2e0df90bed480b3c
fe02eb1e07e9fb07
0ef6fbf406e0eef4
fad6f62ae1fac1fd
0017f0f3edc9f5f4
f518e6fb1cf2f310
3a21f317ebc0f706
04f3da03fbe61bee
32efe7e5e52afd0a
010b06e3f0fc09d2
05ee141004d9f001
13cbe0d3051436f0
af18050d03cbf236
ef2debf72c081303
0e040cfffce805df
eb030b231611ffe3
301ff40920d3f745
0ae7180717150c1d
def8071413ba17f4
f3fc0df409fafdf1
1301e1f0f81b0b44
01fb23ea1cf80c11
2908fefe0032fde9
1e0ce41aed0feef5
08fb13eadbc90ec0
041e19ea06fb11f8
ec0516fc0ef80d0e
f5d1f3f3080a1116
ee0cfa0c03a70dbc
06f516d4100bf716
d719f807fd3903f8
01f4102d1bf7e3e6
2bfc021b0d29042b
03ec03fb33160409
201a1300f639eb04
f6f50201dc0510e2
e7fc08070215fef9
0904140700fe0d28
17fa06ee10fa10e3
f9300718e5f6310b
b9faeef1e31a1b3e
0102fee528f305f8
b90af21411160f03
162ed5210012ff06
c8f6edfdfa260355
f136f8ee2af204d5
2efa0df3f11ff5f9
fdb6f4df17f3cb12
aff5ee0de00be9cf
ee0bf1e8f3e403f3
dc1d0aedf5e7f511
10c5eee4e4eecffc
cbf8efead5ffe79f
0be4f5da14e6edda
040700f10ff0f30a
fd2925270d1205f7
ecf404071651151b
041009ecf80e0de5
18ecf60012d0e210
eb26feeae40cb8fb
e4eb04fe15c91323
08dfe80bf51322f8
10f4fc00f3710000
0a07ed45e64550df
fa1f0f0423fe0e43
0201f40a20f516f2
d4d5ecdf0d0404f7
f1151715ec30e6e3
ecff171f2104f738
01f8ea15170af60e
061ae90bef1e0814
02c8fae703fbc319
ea0ee7faef33f8e7
f9e4facee500f5fa
4303f81af9dfeaf5
04d8e1dd0a07f2e7
01ecfe0602ece918
f1d7f6fa0eeafbfd
ca040ef4f8a50bff
06eb0d0913ed02f0
f120ee07e2e100bd
0bff06f9effa0d14
d4ee03fc12fee203
f032fc1f1406e6ef
ff0c21141b4a0557
1a290c042c00172d
bb05f1ebf93305f7
e3f300e2f9fa0cf0
2af6fffe16b3fcd9
13030a0ff6f7051d
dd0f091beac60014
14dde506fb0ac91b
0bece6fbe60305f5
0df614d618fe12d2
e7e6fbf0030adeea
0458281e08f4dee7
ee0e180cfefd0372
0cfa050ae5041e23
ca02110d16d201e8
e90715ebe808e303
1f0311ff1131fdae
1612df2114f8f8e5
f8e910f1112510f2
06c6eb1cec05190d
fdf004f10c55fd45
0c27e9fee7f5f301
10f90dfff2aefa11
01fee9f31fdaf111
d800e9f00207f71b
fdd6f6e90af10cd3
d9f50d03f4c7e70c
edecd6ed1a0cda17
c3f5edf8d5a8eccf
fb08020ef902f3cc
4af9e6f6f6f909f1
0d12f9e7f115ef01
eaea030b11350d0f
eefcf7ef00e20ed6
342d15fb00ff12fb
1dd0dbf313e718f3
cc0ad9e6f4be061f
f0fcfadce401fdec
fd0f080519eb0601
08cdd9f5ed0004f2
da0feef00e3018af
fc0504eb01fbf3e2
4d1201f0fb17fa00
fe18f22be015daf3
180613f7fddb0f30
1128fefa160406eb
c40615f6f420fef4
eb3104ede0e7f600
170e1409fe011fc4
15d90efd140f0a01
d915051efa0aeb13
1513cee90ae0e815
0ef200f2eb2203bf
ff1007eae7e40206
1819eefb10fc18e6
fa1210e60f1d02ef
1703230109c8f9ee
fe0bee0e400a03e5
e2f1000b0b1903e7
f522f2e60c2413e3
c6ed1afe1a57103e
07fe001516040902
3408f105efeced01
0dcddfd006fbce05
f3ffeefde2fdedd9
ff18f207e7faf2f0
e0ff111aeae5f7f3
0bc4dee7dcfcff1a
ebf3f4fb030d0cf9
f7061ccf1a07fdd0
57fa0cf8fa28fff1
f621e8f0e9221a10
1708fafef2d108b5
eb0becda1c010c0a
daedf312fb0bebf4
08f40a05e00ff8df
2a1d1d06064b03fd
0009ef2b2d101505
1be1f3f4ffda0009
f6e5081ff6eff50c
2c10fff6f62c0e1a
1f28fffde6040108
1a1af90f0d5f05dc
fb3f0248191cecec
27f4f109e8d50471
0e1deb0203190e07
fbeb05f1140d2010
fdfde42ae31a18f2
3e14050f0252f1d2
f9fa0bcef9e61ede
3b16f4f402f60ffb
0210e404fcdd14f9
3c18f2eede060814
f6f005e40609f7e1
ec1107fafbf3faf6
13ca0b0ffc10c40c
38f7fdf1e7c5012c
08fc09e4fdeaecef
d3dbffec18e2ef03
0ccffc160e171311
cdeb0b07e048fd4d
fe03fde10a0e201e
bd00ffe702fbfaf3
e3bfffe20918f6e1
ef091b0903f61744
fe35e6f5de041413
0dfe16e5ec4001e6
fd0b0724e1eff500
aaeb12efdee6f939
ee32f4cffaf3040a
1dd908e8f81aedf5
0003f441e4133e04
2cfd23ff1dca1235
f61112f3f41a0607
1d03fcfbfbbc1cf0
ea10ffe01801f6ff
a8fce6ebf4ba162c
0f00fd0719f7fef7
48e6eafcf31de803
06ecf3d8ee0d0b0c
00f80bf4e0f80810
08090716fb05ffe4
e5e6f9f700f7fff0
da031017e3f9b0f1
eefeec0dfb50023a
fded09202b0517f4
f4df060d1533e9db
0b03eeec080deef6
9ff8f9150c40f730
11fb00f40d0d0e13
bfd5ee01050d040e
fe121d1c00fc1109
f200f0ffe7c8f9fc
f60811fef5f90708
19faf4fcf998161d
eff3fdbefef1e206
3bdff60cf7130b95
1002f8e0f905fe16
f7e307050f2206f9
ea290e1f18ee15f8
30031cff1a4b1e5b
f530edf5e2fa1912
cb07f9080dd2f1f7
f60c11d8ed12d6f8
09f80009f5da0e24
0009f0231f1b1328
e5fcfee103001008
02d7fcf31afb0f0c
050709faec0b02e7
02ebf2f80cdefa14
34f90f110d100507
f7d8dfeb18f20e07
0ff5e211d7e8e1f9
fc04f0cf06eaefe9
28e90f0df71e0c08
f1f9eed1e6ef1404
d9110704ed3af399
0fda16ede4fe0d07
12e2f8f9ec410409
152de305ee0a3bf9
05140107e539fbc1
efdc20fc07ef10fd
ec2507f0ef481709
fdf4fae8daec0a04
ed01da0cf0c5f5cb
f7eff6f0fc0709f7
3406080123af0ffc
fdfdfbbe1225e2ec
18ecea100cd31fcb
0fe60601f4130bea
28f514fbf5dee7f7
f2f10ac6eef2ee12
d9e90d08079aeda5
ff1711d31beb0e10
1709ede907f3fde5
fa251a31fb03af0f
040d01101d232149
0412f217f722fb0d
eb23ff130af8ff1c
11d7f7d6ff10f0ef
e904d70ce73105a6
00060be0ecf1ea12
bb0fff05f91ee802
e91106edf4fde112
061910f6137e115f
f5e2eb03380df1e6
efd614e6102aeaf6
f70011fafbf91711
9e0a1808f31d08af
f10efb0af90cfafd
22effefff5d3011e
06dfedcb0d15fbf9
bfe2e60a0df4f4a7
f8dff6ecf2fc05f2
272b100908050cea
fcefdf051ae91f07
a9f0f2f5ff5303c1
0d171aff0fe60400
4ed9060b0733f901
f031f738202e09f8
f013131a072309f7
08270cf5fbf1f5fb
b40a030bfc31e703
04190211e00f29fb
aefa07ea2504f7c7
0aff081d0c1a02f1
1f0808f005b6f5fd
0d04efffe218c71c
edef1c04ed0f0f29
0417fd1816f507fe
2312f6eb1401dcf1
ed031323eaf526e8
0c12f6fa0edb1837
0f3601e7040b1eeb
2d24edf0eb25fa16
f42a0003ecf51410
5020e8f6f10ef8e5
0eebf9eaf7f9fbe0
