0615f4f30adf0b03
0502ebf41920f3f4
4b09fef6f7d203f3
e70313f10a0bf4f3
2ff601060806ed17
17ff02c50ddde6f7
3509ddf9f1db00f5
f020f803f40201d3
20e90dfe02f0ec07
0ef6150ff01427df
260c0903f4d1e9aa
f5e4f8e1e90c13d6
dfdf25fd060ff8f3
0f1ef2ea0eee05fe
0df81a131005ea1d
1a13ff110600fc1a
da09f40202dae0f8
12691a3a10100cff
e21dee18e44518e8
00f1e7e9f2fcfee1
1c0d00dd110be5f3
e825ef2411eeecf7
f8121821fec41ad9
ffdde011ea0c0301
40f1fefe0201e106
14f6e1e1e8f2d402
bbed11f7dd41fbd5
fe070ef5eaf10ad8
31e903030535e9ef
fae7140e2516310f
d6fffdfc0b18f4d3
00c90c011ffb03f2
0820fc050e05121c
0cefe7b8ee1ff105
cdfef604f21a03c3
e8e20603fae4ee14
ce1d150108eb000c
fbed1f01fc19f3f3
1cfbf51a04b2011b
0ee702130514fcff
d2df191611350a16
fef30e02f6f8ea0f
e60018edff8deb02
f71312240b160ff7
2c23e11206d113e5
f423d815130023fb
d001e4fae524e329
0016f3ec13e8f9d8
14fc0d04f30afdeb
e3e303ef0deaca03
cbf9db1a02f90ce5
1002f81006f2f7f1
26110c00fed90ffb
191000e51d1c2006
c41313f51214eddd
f41b010701061215
f108fb0003c2091c
f330fb14e9ea1b08
ea0dea0d141b03d7
0f130924f9fbee24
28fdf9fd0fccf0ef
f20fe0ea00f7f70d
f2ea0d06dae8f8f3
0101eee61300f405
fa1d070dfabd02fc
11f9ebe309ece113
eb05e5fbec16ecc6
051402cf1d02f0d5
39ffe7fc01120df0
f52f02f9162033ed
c2e103050d1cf506
f6ff19192502fb02
21f6f104ec31f50d
e71f0adef411efe2
e30d1df7e7fcefcd
fcde0bfa1a070517
2df0f7e4100bfeef
02dbf1190c112207
0419140b0d14f3d1
0b09eaeaeaed0608
e5f219ec01bbf916
fc0af4d1f503fdfe
3109ecfceaec05fe
1202eaf2ddf9f907
15211203f8cbedf1
f1e20edbda15cf07
e7fe10f206360615
09120817f3e2fc05
0f13edfd051a10ec
0af1eaebf0e2130f
2b03e4db03e6f8f4
fee2f6d4fcfddfda
ca1e1106eeeef0f9
101ffc20050133ff
f7122010efcf04f5
01250019f50eeb0f
141617e8f700e4e3
f7f1fa0508f7e7e4
ec1b1100ffbe12b0
1315f015e30b0c10
07fce90d03f519fb
10f6e62205080ce8
45fdd9e3fafee82d
05ef19e71deeffd0
f2ddfc1201cd02f1
ee05e6e716f4fdfe
2705e8eef4b2eee9
ed210dde220cf9ca
240615f6f9e11aea
0f11ea06fe0ce108
e90e08fd0ecd1adf
fc16fdedfd03fcfc
0aef010bf41ee2ee
e93b0e021ce90df1
feee021a1eb31f17
17e30715ea04190a
0af5100b011b00ea
ff151be5fb0f0613
17f8f400efcbe901
160be91afbe902e0
08df0c0804dff511
120d00f9f8fe03e6
d508da02000900ed
f2f7100b14f408d8
d810f8f902d40afd
05e8e4e1fe08e2e1
38f6e901ea50f748
172af3f21805f9f1
dcecf9040648f1e8
e20cfbf7121df710
13160cf5fdbaeb27
f1f30313180fe6ef
f7090a0ef7fc1914
fdfceafc0ce2c901
cffbfff9f1fce4cd
ebf111c7f7f701e6
f21817e712b6f2f7
0bfc1819e2efc8e7
12010cf8f1fdf619
09e90e10f3fd1818
10f013ecf01dd8ee
fade18f6de03bbea
d0edf0ee0705f6b8
1e16f613ddf6f0ff
2f0bf7f7125bf5e9
ec322d251b1b30f5
dbf10cec17510876
06050dfc0a121400
e9f809e6f9dfdeed
e30c1915000de700
161d020c1e4efe4a
1e16db4313141e0d
001de6fd09f5feea
ee06d6c3e7e41fee
1afaf2eeffeb019b
01f406faee0300c7
0bfafe0c03010c0a
f9e0fbf712170efd
e5051aec0a3513c7
e4cbfcf1f704eccd
2b1509ea03f8f70d
f717f1d5e1fad2f3
f6fe130a0cd9f6c8
ecf5f50c11edfcd8
db0cf7f7fb1ce50d
f52d0942dff4e8f9
3cf7e6f007cb09e1
0c25f02209fa0e17
c0fffc03114afe1a
e4d32819d61107e3
befc07f9f7b20418
0705f0f9fe0ffbe2
2aede20ff0f9e808
1cecfdd1de01fc12
250df6f3d9d7e4e5
05caedeef2fdfef2
c8f6f2ee05e1f11c
e7e0fdeff7ef0109
fbe9ef1a18c800fb
0a12ed1815fceb18
1bf012f51514ee10
f7e50812ee18dc02
1dfef500fa0b0afb
0111ec13eb04fdf2
0705faf3f8e3fced
ecdd101617fa3102
01efe5eb01410346
092bfcef09e9f3fc
200cf31108cd02ea
14cff8e41be4c60a
0400ecf9052de697
f2f311c3e6efebd0
4e0bfc09edfdf80a
01eff6c5f5e7eefe
c80bdfdefd45f8a0
fb080ad6f208f6f5
f5e9f00ff229e702
f101f50ae72b08e5
0cfafafc0f15fa50
0610122726f117e5
53e1e9ffe8c6f9fb
fb26e9dcefeef6ed
ac0b13ede75c123c
eff8faebf707f30b
0a04f9f1fd1d2104
f7fc06e816f2dc02
30f60ff9e900092b
08db180cfe0af9e4
02fa0806ffbe021b
11edf21917fbeaf3
d304e60ef9ad0bc4
0f25fde4effe08da
0309110109b2fd11
effffcdacdf2fe1a
090817f3129617bf
0ef00418f0eff7e4
1ffaf20dee1206f4
171ae704efdd0deb
f2e5fdeffddce100
efdc05d1ee09eef4
17ee0fe5190602ef
fb1bffe5def51b01
09190cf5f00b1816
04fb0cfb17fdfd07
300b14edf7e7e206
030c16210a08c1f4
f6fcf8eb133b0955
14fdebe403f61dfe
22fa0bf309a20108
ee07f8f522f3e3f3
08df07ffd9bb02a4
ff20fdff0209f8e0
fee1f204fe0cfa08
f1f8e71311e6d507
cd01e901090507e0
f009f9fc2004e6e2
d6ea10fcff11f1eb
ec1cf33cd606ddf2
ed00f008111a152c
0c0fe404fe190c1d
ef150fe81728da0b
eb251220eaf8c8de
1c0813fff2affb26
2710df27ed1f15fa
ee06fb1113d7f4ee
13b3f6fffb01310f
26130dedf1020525
07e2fe00f00716f5
14dff4f70abc0214
ffe2fe2a11fd19fb
f40b0301edcaf44f
1910f21d08fc1b16
0e0801100534e1e8
fa1df3e3ebfd180a
4bdf0b0ffe481b26
0e30e720f900fbe3
ebfde5f609ef0204
fe05f5f7e41f00f3
1c0b0df3ef500f26
ed051c132300f004
5107f8fffad9f414
13edda021f00dfe6
cc0c04f5f0d0eedd
f8e601e72701fbf4
d300110bfad8f614
fbd004ce0c00150d
140df0021707f4fa
0b020419f70af4e0
21fe0cf01e03db0c
14ee04fadaefddef
e81115fb17f60a2b
ff3cfc0ee514002b
f209f1010cfce8e4
f91f041a0f020af6
0e16e1ebe1bbf8eb
0f30f4f3df0819fe
f4dff20f0bf5fff8
f0e80c4611f72e11
ed1112171352f730
18f5f532fc1d08fd
12f3e30a06fe1500
0ffbe6ebe107f8e5
cc02f9dd01e401dc
f5ef0506e0e3f8db
edf4f20eee3af300
ffd10bed0f14f5fa
e10becf9001b140d
efd3fffa110af3e0
f9ddfb13030afbf8
01441cdc08fed001
5b23f70d1d2af9ef
01e50b0f2009ede3
eef308e803e7de08
edf51ceefa05fd00
cef8eb0a09f60ff5
0726ea13f5062424
1ef105fa11f6e8f9
e4ebea1df0f90f12
a4fa16ff0c2f05c1
1016fbeef1fb1116
482202efebfc05f5
ec1c06e716fbf0e4
e0e9fef4e5f1ecc0
fbe6eccc1df408c2
19030e0f1fee0c01
e9f20cd6dc0c13ed
0608eaf6ee0d1011
f325e2f50a0f09db
1a1a0bfcfb0b09fd
0f10130ce5f00f11
dbf51bfdfe4006fd
0df3fe0cdc12000e
1cfa0d0204f01bf2
ef18f10aefe8f1f0
280e101116c0f6d3
0bf7e9f9dbf4f4dc
1307e8eb020cf9ff
ff1ffdc6fb0ce90b
05ffe50feb0af9eb
0cf40ed7e9edef06
17f5efeae911fef5
fa06e9f7f7e8cb07
240cfdfe135907d3
ecdcebdfef01f8d3
0e0a07ea0dfbfee3
ff16230df820400b
fa0e0feff3d8fa6d
fc05eb0ce7f6f701
42f7fbfc10fee910
f1eff214d9f4fc0b
f70afee4fb0f0322
fc09f0ec1d04f1e4
f60d04e4ff45020b
f53010100f1905eb
7f00f5f61d04f4c0
13e10409f4f8e60d
ee1609e6fedd0f02
fc06dbe8e0edef04
3b0809faf5d7e706
f9e80ae410f903f1
dcfa16f917ff0416
f1ec180ac6fae909
2b1bf3ff053c01b2
0cfce8fdecfdfce0
1ef9e507e5f70a14
f70603dddb030305
2109e5dbe8b8f8ed
ec04f0d8f8e609fa
e9ebf40bf423e6df
0d080b0704fac202
cdf7fef9041713f8
0cf2fb2533291724
cbef0bf118e2000a
f0080eeffd11f319
a6f2fe01ebce09bc
effdf9ebf5060207
eaf3e40a0fd0f7ee
ff290ff004f1f8fa
fcf1ffe705e10db7
08e8f00e2ef2e4e3
24efe600eddaf6f8
ec25ebef0f0c0e13
caed0ff9d8bc0714
09e9e8fe19f7fa02
f60e02ff0d2af0f0
e50224101101dcfa
06ff0df31a080e2e
1a33e9280a07132d
b8f6f4f602bbda14
f215252018f11604
0bed12f4ec3d060a
0df3fefa16fc1b13
e4e40ff6fb211412
16daf817e1f306fc
f8f3f4f609aa0120
03160c111af6ff0f
17e713fb09f801fe
feeae522df120ce9
e507f3faf8ce14e3
0c28fff0e70e100d
051efc050f4cf912
fff9ede9140018eb
c5eeef0df7cb1357
072402e02708f7f6
