30f207e5fc0119ee
0fbbf1dee4e9061b
e00504e3dcb1fd15
fcec0ef9f5fe0b10
e7f8effd059bebfc
06c80c041ef31918
17f5ebf9df0cefd3
0b100808f50712df
f2ea201410181203
fe0509f000163c09
390a08fdefb108db
0c17ef02060bf8f9
07e1030b0e06eee9
06030003e81921f0
ecf4150d10351df8
0bcc021d011308f8
511222f0fbfef7ec
112903d3da0a0ddc
0f11e30cfbd5010d
eeeef7f81807fc01
d90310e513ff18e4
040b17f6e6093710
ea0f0115edd2f112
fb1ae923e5fd1011
44f40df0f8b9ff02
0cf5fcdf1af7fa10
c10eebf7fc4300a3
fe0af1ebe4f8f8f1
fdefe915078cef18
ff15e00be005fff1
c40dffe7fdddefdc
f3f3edd7e902daf3
c91d20ee1bab0703
12dcf9f1f303f202
10f80a0a0711f2ec
0ffaf7ebfd140b28
2b0d15f41b0e10fb
f609f1d40e130eea
120906fbfdf003df
f317f5f732f10f0c
cd1207fbfcdee4ed
fe0017f6ddf3f8de
e129e41affe90b9e
0fc4e40418040330
0bebeefa140ef100
0fb4db0e1fdf13f8
d4e0e8ec03fbfa95
f3e50cdd09e708f7
2c090e0cfc1febf6
e4e30a20f41b0108
dd041c0b1e551300
f315f70534eb04e9
f41affe4f4c619f6
0403050af70fdbe7
bbf0f7f80baf142e
f9ebeddcecf8f8ff
4f21fdfdfb3a01ea
082116fd0221dcf6
6de1ececf3300cdb
1618f0edea031418
1b03f0fef4191106
09d0dcd028e1d7f4
b7f5ff03ee2c0685
f3fbeb131cea070e
0ff7f9e9ed060712
fec0d6f9eee211eb
3b0dfc0be627e5a1
050e13dfece9e40e
44ed1312f818f904
012004f427f1f2ed
28f1df120715ebfc
fad317ff1a04fee7
0a1b14f20c15fe12
fdfdd800fbee1dfa
3f01f009f5fce9e8
f1ee0cd002fe04e2
1c20f1fc090c040d
012b0b131ee40604
0f10f5120222153e
fb06efd713060020
010409ee0b0c0605
fd1bf1161806f20e
f51bf7f8ea2b04c7
fcf4f1c92608f612
fde4f6fd01fb0201
fe0600f115e91dfd
fc19fb0cf0e9fbd8
fc17e2e40c170d27
ed01f5f4fbd9f8fb
0f0ef514130cd109
dfe1f2e5f7c70f08
f5effd060be9e40d
04210c100db0171a
190ef701cbecd401
d609fd06dfe5f6c6
06f7faf3e60712d6
2ade10f70def04e4
ebdef0f210121bf1
110d16f50bc112cc
ef02e91c05f709f0
e5f9effd06361813
f725f3232cff0af8
26ea00000d31ebc6
f2f8fcf8eff3081e
320f12150b09f012
1bc2f6e40af7defe
d6eeff08ebd5e48f
ed14f3fef2e60b17
ef1f1bfe09e82e01
21dd191613eefe16
f3eeff160fa1f9e8
0d2b07d915f7f628
03150a06001903e5
090ef40502fbeb04
41f2f00d12aefc0f
09ecea08fcf0fbe2
f7fcfbec053d03f5
fa1607d700f62cf6
d60909050bbb2241
ff12ea0b300bf704
21f9fdfbfbfa1c10
020ff002fd113f0f
e509e91aff06060f
0ffb11d906ee16ea
d5fc121415effdfc
f9e407ed0bee1917
330ae3e8030deaac
ff0bffe3e8f7f705
1212f4fafd0e1115
eef7d5c311f20214
ef01e6f6fa9e0e20
ecf9fbd7ffe7f8f6
2725ec060e02f627
1afef3e71de918f1
1ef7ecfcff2ceaee
f7e611ece5fc0307
0cf319f3f411fffa
0a1a180b112248f4
e2050b0112cfe9c6
1118f4121a15ef20
bf0302da010c05e7
0b1bf9090d0af8fe
f90a131c21241725
f4fae91ff713eb05
420ff2e5f606f3ee
e7fe0be5e51742e0
4211eeed0302fb3a
f5f4f40327040cfe
e0faff0af241ebe0
f71811f7120eeded
152300fd1855f264
01fcf7ee0a0aea03
46240deb05a7e82b
0209dce41008e3f8
f5dedbf40ae4fdec
f5eaf2fa17ebfbea
d9f3ea0604b8f510
f5d8dac516f90503
30e3f8ef1342fef1
03f2fc0dd4e6e7fb
e327ff0613c41300
06d8e1c7f6efc809
0f0b081401dc00bc
082b04f424fb1e26
0be903fb124ff100
f8e917f6fe2943f8
f427f10719ea0939
f3e50be5fa06f1ea
0af4fdf9fe08fc08
e51d142a0df1d4f2
4831010d0b43f3ef
fd05ee1bdb080714
effb0906f8fde214
130703cbfffef403
fd0ee014ead4e401
f009f3d5dce7e9ed
1fe30cf6f860f3e1
ef1fef24283b52e7
2d1503f52507fff7
07000bef3b100013
e9eb16fd01b1080b
f40ef30c03e9c9f4
d7f014f5eb3b0fe7
090bfe1d1a131527
fd27ee0b1321f309
130a041e18f31711
01f5eef30dd8e315
0c28fcf30c0b0b02
20ef0c18f9ccfe27
0c14e01710e0c900
c8e2fb08e1ae02d0
0d2013d4ff050315
fb1aeefcf4c5d8ff
14faf7190f020e0f
faefeb0f053ff413
0cd214f20af511f6
4004f402f0280d15
08d505cbebf8d814
1415edf8fd05e727
fbd3170be0de0bbe
411cfe0317be0b1e
0a1ffa1516efdf00
29dde50ff73b0abd
f107f2d4e4e2f3fe
22fcfc0215d8fd19
16d8fafa1505ce09
dd03e818e71ef6a8
f206f7ec1dec20f0
53e80d140f2602ec
e6fefb2f161e28f2
bdf3110be5dafa03
f5f5f3e9fe0cfcdc
0d0700ef11e1fbf8
e8eef5e3f7f3d000
dff010121abd1ef7
fd01f01112fc1522
ccf211f8060df201
fdf4d7d9ffeee9f4
0a04f7ec0de10fca
08ff1913ff05fae8
dd130efe0ebc0b02
fde4df1113ddf4f9
06ff0e03eed60900
09070be01808e905
f4eff2f008edfcff
0cf907d4f80edb00
241d0e0d1348f0cf
15210701eb120a06
0bfb11f8051a05f8
17dae6ca2bfb2b15
fbf3dbf90048f930
f31515f41be6f9ff
e222fb02fc0a1914
0deffcbb17e30509
c9f6f2fff8cc09cd
05eb03e620ddfa07
020a09f409af1a02
f208fe1cd31ddbe7
cefef6feee30fb14
0e010af91e070bfa
cef8ebf00138ebe2
0ce40504e41910de
52101c0d1aff0ee8
fcce1a19f6f2f329
ceedf216f1d605fb
ed0f162ae6f702e7
04fd02151a3ef7e2
17180ff8edf91417
f503f5f1f8440904
eae8ef29f825f606
3001140d0fcc0135
ef1b1211faf70efb
bb14f6e8fb0224ef
19c706df24e8260b
c5030c0aecf4f7ea
f0fc01f0eafafa01
2f24110619ed1e07
0d18db00ed00b5fa
0eebdd12fb090c03
e9f7e706ed05fbd5
1c10fd07ed920500
fc08eccfeff11efb
d60e0908e73afef0
f3f6ee0810f70af8
fdda17f8ee33e5ed
e605f82f12f730fe
c306f9fceb5a00c8
ed0feade11061bee
0cfa06e502ded6fd
e3c926e4ce04eee3
041ef6eb0851efed
07fdf9e9040f0c21
dcda06f6e8d70202
f6ecee09f3f81c1a
06f5f901fcfff8a4
fc08fb01240c19e3
3af4f111fa0302d9
efd5f01a19f2f708
fd1a1c041a390ac2
f112ff1c24fe0ce5
2603ff0f11d20d20
f0e0ffc2dffcf217
1afbe807004bf4aa
fbe010eafe04110b
0a17f51803ba0bfa
0beaf6cde508fa0a
180b03f8eecdf485
ece3f0d50ee30902
4214f3fa1ce1e209
08f61edb0ef6ecec
5819f31af25a1720
08effef3fc0eff20
c4e3f7f4fdd5fcdd
f61d15f2fe10410c
1a1c0801f3f30bb2
0bedf01b1901f1fc
bbf20afd16d6f7fe
0d0d0025d91cef09
ce1e1304fdbf0f08
1218ed21e7030ffc
0215fcebf7b9df17
13d8f7ecfde4ddfb
0c06ffeeeb2feece
fdfffd01dbf2fa12
1fe60be0ff1906f7
0bea0209e51e4dfa
b00419e8f7e5ed1c
f70f1ddf1afeeffe
f008f9001b1de3f2
f9de27f3fdeef6fb
e2fb0c150ffc10c4
07dcddefdc1a0d2b
dd1c1cf005ce0112
fbdb00120d080b13
d3faf504fcc3f9f5
fbf5f7fdddf1110a
cbec0008f2f3141f
ec0dd7c016efce08
04e5dcf10f1b0007
fed60d0c12e100e9
fcff04fa061809fa
ec000be9e1fef8ec
4806e2f30021fd33
0dff10e1ef000d01
1603fa151440090c
12e0efe1fafef2fe
d0fde6efe6ec0fab
0dd4f0d8daf6fae7
3c0ff8030ac1fc15
130b0612eedfcaf2
1ffd04f10342f79f
f70ff4db0ffaedee
51fd1b0e11c80d17
04e1eee50518ebfa
e70b07120e320cd1
0a01fa0607fd040b
0bdb080efb3802f3
f72cfb1e0d0412f7
c7ee0803e83d0dcd
0b1507eceb0e1f16
e7fa05e71e09f4f6
f90b1f0ff4142fe4
e40bf2171b63081c
08dee911f916fb0f
1e18eaf3ee9ff612
0ccf0beef0fb16fa
ecef0407f5de0dff
edd114e7edf8fa00
24f306f516f7f505
0b1f15e0e4000d00
f40f0a0c20e60dc8
ffdffeea07fee7ea
02f3f4e9ee3112fd
0cf2002006ee1219
ba1203e9e20bf0db
021bf5170f0306f7
101dffec06cc060c
10c7dfdb1804ee02
ddf5f7faf621f008
e613f20820e4e907
fc0306fef8acf423
11c6ce080df21116
13f4e8e6d8e6e6ec
efed16cf14e1ef01
03ed11f9f81801f1
f11001d7d2f31def
df0debf910a208bd
0623e8f6f3e9f1e6
13cdebfa12250fd5
f9de0221edfefdf2
f81c0d012246e807
13f0fc2704121218
cefefce50bcd04e3
eb051517111b01f8
c7fdf4061e04f9ec
0c190fe7eefe0114
12f1fc0106e404ef
f3e1dfe5140344f6
c5eefdf5e4e4150f
fe01f1f21e0bee15
f11316feefdbf506
13fde4e21704d710
16fb09fce6cb0136
02eaebc505ebfff0
