dd00000000000000
0000000000000000
f700000000000000
0000000000000000
b600000000000000
0000000000000000
2700000000000000
0000000000000000
0c00000000000000
0000000000000000
c000000000000000
0000000000000000
a400000000000000
0000000000000000
8b00000000000000
0000000000000000
bc00000000000000
0000000000000000
0800000000000000
0000000000000000
d100000000000000
0000000000000000
e200000000000000
0000000000000000
c500000000000000
0000000000000000
0300000000000000
0000000000000000
8a00000000000000
0000000000000000
8100000000000000
0000000000000000
c400000000000000
0000000000000000
ca00000000000000
0000000000000000
9800000000000000
0000000000000000
2c00000000000000
0000000000000000
0300000000000000
0000000000000000
a900000000000000
0000000000000000
f900000000000000
0000000000000000
0500000000000000
0000000000000000
f500000000000000
0000000000000000
f000000000000000
0000000000000000
8200000000000000
0000000000000000
c900000000000000
0000000000000000
da00000000000000
0000000000000000
e200000000000000
0000000000000000
ce00000000000000
0000000000000000
cc00000000000000
0000000000000000
cc00000000000000
0000000000000000
ed00000000000000
0000000000000000
e500000000000000
0000000000000000
0700000000000000
0000000000000000
0100000000000000
0000000000000000
d700000000000000
0000000000000000
b400000000000000
0000000000000000
b000000000000000
0000000000000000
a200000000000000
0000000000000000
1600000000000000
0000000000000000
fb00000000000000
0000000000000000
0c00000000000000
0000000000000000
a500000000000000
0000000000000000
d900000000000000
0000000000000000
fc00000000000000
0000000000000000
2000000000000000
0000000000000000
