ea00000000000000
0000000000000000
c800000000000000
0000000000000000
d300000000000000
0000000000000000
1a00000000000000
0000000000000000
1500000000000000
0000000000000000
a700000000000000
0000000000000000
0500000000000000
0000000000000000
dc00000000000000
0000000000000000
1400000000000000
0000000000000000
f100000000000000
0000000000000000
d800000000000000
0000000000000000
df00000000000000
0000000000000000
1600000000000000
0000000000000000
a900000000000000
0000000000000000
f700000000000000
0000000000000000
1300000000000000
0000000000000000
9400000000000000
0000000000000000
e300000000000000
0000000000000000
1300000000000000
0000000000000000
bd00000000000000
0000000000000000
0c00000000000000
0000000000000000
a900000000000000
0000000000000000
da00000000000000
0000000000000000
c500000000000000
0000000000000000
0200000000000000
0000000000000000
0d00000000000000
0000000000000000
e300000000000000
0000000000000000
b200000000000000
0000000000000000
f900000000000000
0000000000000000
c400000000000000
0000000000000000
9500000000000000
0000000000000000
f100000000000000
0000000000000000
ac00000000000000
0000000000000000
f400000000000000
0000000000000000
fd00000000000000
0000000000000000
0300000000000000
0000000000000000
b600000000000000
0000000000000000
ce00000000000000
0000000000000000
c500000000000000
0000000000000000
d200000000000000
0000000000000000
a800000000000000
0000000000000000
ff00000000000000
0000000000000000
0f00000000000000
0000000000000000
8900000000000000
0000000000000000
0b00000000000000
0000000000000000
b700000000000000
0000000000000000
fd00000000000000
0000000000000000
f100000000000000
0000000000000000
