c000000000000000
0000000000000000
fc00000000000000
0000000000000000
da00000000000000
0000000000000000
fd00000000000000
0000000000000000
cf00000000000000
0000000000000000
fe00000000000000
0000000000000000
9b00000000000000
0000000000000000
ec00000000000000
0000000000000000
d100000000000000
0000000000000000
8e00000000000000
0000000000000000
df00000000000000
0000000000000000
8b00000000000000
0000000000000000
8c00000000000000
0000000000000000
a600000000000000
0000000000000000
b500000000000000
0000000000000000
8700000000000000
0000000000000000
db00000000000000
0000000000000000
1500000000000000
0000000000000000
a500000000000000
0000000000000000
1a00000000000000
0000000000000000
2100000000000000
0000000000000000
cc00000000000000
0000000000000000
d500000000000000
0000000000000000
ae00000000000000
0000000000000000
8100000000000000
0000000000000000
cd00000000000000
0000000000000000
ae00000000000000
0000000000000000
9c00000000000000
0000000000000000
cc00000000000000
0000000000000000
e200000000000000
0000000000000000
fe00000000000000
0000000000000000
ae00000000000000
0000000000000000
f200000000000000
0000000000000000
0b00000000000000
0000000000000000
0800000000000000
0000000000000000
9300000000000000
0000000000000000
3600000000000000
0000000000000000
f600000000000000
0000000000000000
b200000000000000
0000000000000000
c900000000000000
0000000000000000
e300000000000000
0000000000000000
cc00000000000000
0000000000000000
df00000000000000
0000000000000000
b000000000000000
0000000000000000
dc00000000000000
0000000000000000
c400000000000000
0000000000000000
9400000000000000
0000000000000000
eb00000000000000
0000000000000000
