e2eceef6ebfb300e
f6f7ecf2d9fd09de
fbfa0310e8f10fe8
05cae52f14f4021a
08f0fc1b0c18eae6
fb0af712f71626fb
f93f0ec229022d38
08e7f2d7f7fe1a17
250ff317f4f82501
fe07f423e7021303
0b250fc41cfef533
1721002427f0110f
0cdf1dca0f1111e3
16fcf907ea0834e4
07eda0fcd3011753
25be0033e9f5f50b
ee13fa19e90fb5e4
09e0f6f5d5e5111c
e4db2923fe031de0
f7e600f7f80af7fc
ec13283721fc2917
2df71ef3d5f4ec1d
dbe2c03d030e0138
e1dcede3c2180806
16feeb2015f4ebfa
2d1e11fbf7ede2f5
f6e7f826f6051237
1eebf6f415160403
03dcf4ddf70cfc0c
03f9e7fbdb04150a
e6f50dbe34112041
0bcee1fdecfbeef7
2813080f0517c6e5
eafa19ffe2f7f602
080bcbf4d6e9f7d6
e5dffc19fc03150b
ecfcefece4e6bf22
2e23f1ebca051ae1
effac921dde6f2d1
f5e1def602011201
11f115100cdb2a21
1c0114ff17ef141a
f6e21ed820eae722
d413fdf52cf2edeb
e808eed9180f3aea
0b1fff03eb1bdff5
101922e1df0d1120
f0da061410f404fa
e3f4332100e21421
f5de160f04fc14ee
f207ef14e307e4d4
16300401fe0612ee
fa0c0df810ea06f9
02e8160fde0e26f1
0be4f3fbd807d2ec
e5d0f021bf08f9f6
08042111011004fe
f4f1edfee7fef3ec
070b1d1dd6ff09f6
fe02e511d7ee0f17
fde91907eae92b09
eefd0601ecf019f5
010b1f2b03f8ecc6
edd70be51bfaee11
f514fb14fdeb3604
20def0fb1afc10f1
17fa2df0dfede4bf
fd1efd0ae50d0be9
f4fae5eef501e713
e71c01f4d1e7e106
1614a5cf13ed0ae8
fdfc0b1ad50e040e
f5f300e0fff4112a
0523e7e81c0cfa07
fa15ee19d9f0f0fb
ecd3fde90ff717ee
dedff213de030731
2b18f7ef3613eb1f
05e007c44503fde7
eefd1f071bf603e5
e9ff001103f143fa
0138e508e8ecf51e
2beafcaa240e1fd4
d62603f3dafc02ff
0606fc030a1b1fda
09f60cf21a0a0af6
e40f12e501ecee2c
29e0e417f9f3090b
13f411020c21f6e7
f0e00c1b0fe9dde2
e61deae731122be9
06d5fb0239ee10fa
191fffeae4de2021
05c4f7fc0e0efd10
fdfe15e3cae7f738
ddd5e4ebe6eefa00
3217f510f9f40e13
1200e1150b10edeb
1df94dc44bee1d4d
22c6f8030fe7040d
18fff9e0180732f3
eb200ef331eee50a
e913f533d503051e
1fe219111909ff08
10ebf10adfffdcf1
12eb1cf32214fdec
04e8b8f80bf506a8
c10712e704ecfde7
e7dff8dc1306fff6
fa13f1f4f6ff2a09
0b0d2c0d0c06e5f1
fe09053715fceafd
0e110bd41cf4e214
161df7fdeeec0ceb
e9f93419d0020e49
e9dc0b2726f3040d
0708eef2f62412fd
e6221b1c04e0131b
e6151f10cdf232bb
f901d6f8db031012
d8fd060ce507eefe
f6f0ed01ff0d1ded
10f727fbd7fee139
fed9130cd4e6ff0c
f4fa1405f7f8d709
e2fdee06db140b16
e8dae505ca0cf03e
faf00a05eefefb0f
21ff16f104163fef
08150b15e405f3fa
f821ffcfe40e19bb
1bf4ef100ffc01f9
190100080a390b10
ecfced28f60a1e02
1713bbd5e906fafa
efdf1bd926ed1ffb
09e72be718fade0a
1010e706e10312fe
14ea42fb191a20bc
eedfd702edff1afa
25ed09d018122b19
17dee91c01feebf5
1120cdea3506f314
11eceef8e2081a0a
e3f820fa09ebe8d3
fcebf7eefbec0027
070d27ee08e114f6
05070f1607f4080d
f51a2c220e1d1705
f6e3f1faf607e626
ee14ca2afd0dd8f7
dbe1ece8ff0af60a
e9e3120706db5bfc
2aea040c2e01eaf8
fd143de8291100ba
111729191112f302
1e03eaf31af92fe6
fa1af71f2be02cdf
f6ea161ddf25f6b3
0fe807f7fbe10904
1cf520f501e8d404
2bf1010405ee15eb
0518f3de4ded0842
eb1d0912ee01ed08
dbfaf9f1e6f0ed1e
210bf8edfdf4f2f0
e7f8e124c6f8fc9a
e3ef0fdc00fcf5f3
09e306f7fcef4d03
ec03f204192a1909
1109e3d43a0ff834
fad5280728150bfa
20fae41a03e6e709
01e8160b3517edef
f11e26db05f9040a
0ee20620420a15f1
110027e9e9ff33f4
17f71c05130e0920
efe8b723e0f2dafb
0a36ddf8000b0613
17e60be3f0df2118
d5040909e50c0e01
0ddb3e181b0a0ee4
23c2101ccb03eb12
03efea1c01e9cd0d
1313f719090010f1
f5ffe7eef309192a
1dc5e82f27e51708
1402e4e3e6072e01
05e6f7f000e01b1c
edf0ffe031f802f6
06e0ff272ff3f117
fa15f202e5e9e4e2
13f000fa0fdf07ff
03101dff07111434
e2ff0ae4fd040b01
1803e7fde807f81d
f317e4ee1611000e
1aec07d9e4e51225
180c13fa2dfe0711
2a0412f50e0c3e20
20ef21002213dcff
1fec180a440a030e
fae2f31007fb01eb
ece400fceff7f81b
23f813e8ee2c0800
e50e031e36e6e3c6
e6e1f3ff200ff903
def504ece604f3e6
ef2807f2010adcf8
0eeafdd9f8f5eb38
e82326062bf5f5f6
0ce8000b10240722
fe270813e9e5e4d9
e602bd05261c2c08
161a02eeff060114
1de608fc1e243feb
170eec1a0006e8da
effbdaee2f2f2f45
23e9e2f71cf83603
e4e615f4ffeeebfb
f1d2f4fed807e6f3
ef222019e6f8edeb
0ae20c0fe00bf60c
f2efea31fef50410
0208f00f1d03fbdc
100b2913e41ce909
ebd612e917ee05f4
31f0e9020bf91afb
07e50bfffce623d7
f9101718fe1e2ae4
06160bf1f1ea220c
14ef04ffecf7f12d
fc3a03f02c1df70f
f116f3042d00da0f
fb23e80e22f4e3e7
33f30f101f104ce4
0ffe1af1fce8fa01
f81c4e25dffd15f5
0105091ce2fef004
e3e4fe0511fde2ea
f40b09f812f027fa
f2efe335f1fd0446
fb0905ec1ef60912
04f10720f10903ee
d4061a00e40924e1
f9163ad7d705f8bb
d9130ee0fb0f0a06
27e9fed01bf7c5d3
dfd92107f10ef1f9
f8fc38d5f2f3ffda
0ad7e940eee2181b
e6e4040e1405f0fb
da23e41afbe50c13
ec11d6daf00befdf
260c0f28eafaef25
0d0503f626070c23
13e5e9edf1fb03f7
0bfcc5eb291d0cb0
01f0e7eed4ed1509
f4eefa23fd02cbe9
1beaea25eef91403
0a2eaee1f015e8ef
22f8e40310eefbfb
e1030ff0ed07eafe
cee3000ef5ff31e8
f8da4f08da0edc0f
053e0905f6f614f3
130216251b0bb8e0
1e110b1928ed0dfc
e9e51d04d01eec24
fc25f6ef1301fcfd
e5f816cff41c1b04
e3fb0aeae3f31af4
130db6eefae90ae7
2dede90e14040110
13f3f1260b13cdfc
27ff16f114f5ed1f
eded1a4b2009f70f
c90404081c0b03f2
e506072917fdd417
f30d0a17ea02d6ea
f81027d8440e1c1a
0ef11d06f516fcfa
cf0511e70ef4bce7
0004e3e5e609daee
0bf5b50bebf5daf8
0b1be4fdedf2f2ee
2e15f8140dd6a430
32e8e108df08e121
15f7aa181109f927
0fe820fc3a0305f1
f8df211decfd38ec
27d00b01dafcee22
e92c0ade0102381c
23de0023fd14f60b
1616ebe6edeb0a2c
1406ecf5f801d61b
fadb041c250a14ef
f2fc180325faf6f4
22041ff916e4f21c
003911ff1d180305
f8e04adcdc0df5e5
18cafd1d1f0b00fd
0ff5f4e1faedf6fc
13ee1bfa1108e401
16040f2ada16ed18
0bf612011df8e805
0cee24eeeb0c2ceb
fad5f2ec0b0015e8
06fafdd9fd0dd7c0
f6dd00f224f2ef01
f1efe8d820ede1d9
e7ecfd1524df14f2
f2f330d01e0fff07
0d2aef2ae9fdfdf2
4e1418fe12f7360d
03110309e1f9ed09
e30c53d60700f213
f9f1e629fe03fc0a
24231ad3e311e1e9
3023fe01eafcf823
fd1608031ce8f607
e11517f1eaf807f7
e0e2faff11e41d2a
160ef20dd5050705
fd00022f18f3032e
e8ec1417eb000309
0ae6e5e61afa00f8
f9191af51c23e9f4
ff03303d03fbf8ec
e0c812ef04eb08ff
eef4fde5f5ebd12c
edf818f4341fdae5
f50bfceb28e5ee02
f80bfbee30f3fbe8
0f140324e2e6310a
eb0b1609f2f7dd1c
2700a6c329eb0a19
dad50cfad90a0e01
15df22f71c03b608
1e0ee00fe4f316d9
0be500ea1dfe0615
0dfbdf072cf0fe0c
e5fe06e80e00071b
1ae30b250ce5f0ed
0310e60c0f25f00a
f42cf011ef092003
1de316d9e8fd1325
0206f704d9f5fc03
f0fef0cdd1f62c5d
17e00f042b090bfa
dcf1f3110ee1bbf8
09f313f1f6fa09ff
1206f2042804dc27
dafcf70a0414e4f2
ea02fcddfaf7ba09
dbf7e713e80403fd
0df7bed6e8261225
f60bef0d06010bfe
d80120fae7ebdafa
0033e5f7303213ee
02161ad5faf0f405
d0fafce228f3f602
1f0a1507fff0e400
effbe403ffe219e3
09fb2c1ac512e21b
1a2d0b151ffc16f5
ec0df61d1c19d2ee
1de4eafdf7fef720
eb15e4ec15011bfe
0111edf3e8ea1bf6
bffef40c0deb0d11
09fd0c01dff3fd14
fcdd1c37c7f2f1df
fe36ecf1f0ed15f4
ea12ef0ef809c3d3
e8140e142e013002
e4fb56d3e11b0943
f615f90114f408f1
16fb06d3fdfee6ea
f6f0fc150ff3f7d8
f91fd52ccb2202ff
30fe0a1005f5050a
