e2f91b00e4193fe2
09fdeaed19ed1df5
0c16ecf11a09d1d7
f9ea152a070608fd
01ea120f0bfb1cf8
fa050df7ea14fa00
02f1d60fecf53108
f200f93207e8f317
2af00ed8ed0efa1f
0c27e90d1c0236ed
edefd90e28fd02f0
f41ae2190f020713
05e822d8dbdef3ee
10eb120a1be41908
f9e30ad3f901101c
f50614251dea0a15
0424e4f7fbeb04ef
ffc4f11913dec914
d5ecc5ecec01f7d2
fbcc1bf6da100cf9
0deee9d9eee70efc
24dbe315b4dd0403
dcef2bf8cb01ddf1
1a28d106da191af1
26dc21f6f1fd4101
0f29faf228022407
fcf7d3e92a07d2e5
19eff9fbf20001f9
2f151ff10d20cd01
d6fcebec29f6100b
f114cbdccffcee15
1ed11021db030e01
f610f52104f50dea
f4d4f61d170a0cfb
071214ed0110fff4
fc0705fbeb0104f2
05edeed6e70be2e3
2c0801fc16e10009
fe00d92afde810b9
1cbbdfdbde031201
12ed18110af3d312
ec2af704d7052000
0804fdddfcede8b5
e715f218ecf9e9f6
f802f0d00af72006
efeae3ea22f7dee6
f302fa1d03f0dee1
f7f61ff91e0ef713
f301ff10f3f8f3e7
edf3f8fcc6f01215
f904c51406f31b97
1d0a09fbb10f13f5
d9f0ec0fdf020c15
e103e9e800fcf40d
14e6d5f13b111209
e4c6f712eef8fb0d
02ed0ad2f70fc9ee
1230e4fefefff608
f1231f3305eefdfb
e3e01402190f05fb
0ff9280b0605dbfd
0cd7e5e5e6f4e12b
10e6024515eff0fe
0a130dc9e5f7f110
110e11f619e52807
081fe3f3ea10f0ff
f5f5d00ec4fbdd11
ea14f0f7d0f60300
fe0b1222e5fbfa07
060c1ef017e6ccfc
14e802e0cceaf334
0ce5f5f6f512f6f6
261be30f0ef70130
1111fdef2d15e318
f2dddce91cec0aed
10d30df31b0b080a
080cfd11e3060b21
01f91212331511fc
f4f923ad290aedf3
04db03dc10f2ede9
15e70f1a07fb051a
163f1615e9fcefea
ed00bebce1f40213
e60819dfec0a0b03
1fe607da070914e9
e6ecf2fd1dee2207
f000e120d006dcfa
07f211fbdde8f4fd
1b11e907e50d40f8
1affed0c04f7eee2
eb25ede21bf31fc8
19bf1341f5ef1016
ddebe6e90becf616
f6fe06fb0fed0702
0af2e3d6e4f306e2
ebbf04040d0b16fd
f0e209f51620fee6
030b0e19f5f9ea0c
e4edeff3fa1d2ffe
eabcfbefd3edf307
0302ed1e14f72a03
f80a0f01dcfedf1f
0521ed03dffef0c3
e51ef2ee30e8f50f
04fc11d8f60c341a
fa34f9f11bf0e512
e3efb51d2504de01
daf10fd6e2eae5ea
fe071016eee605f2
032403f00dfb2e1f
0d0365f5ed04ec38
1111070aeaece1f5
11e2e5eb0915ce23
170313f1fcef2ef5
fae6270e101619df
19cae4f4fd0df102
130f11dc0a024903
ef05070bf1e93708
eafe56ecf80bf222
192c06291b070cfc
e8eff5fdf5e80af3
d6ed0cf72505fcfd
f10e511118f1fff0
04db03fceaed0cf6
2afb0fd30d1bc4eb
161dfb0b190df1f2
e2041aebe6f311c3
1b0cecf5e8fafd10
3de921f7f3eb20f4
ead3f0ecd7df14fb
f3e4c31c2014f6ae
dc22e81bf8eff207
38e3f516011142f5
1eea1a1723040601
f7ff22e2faf70634
08c2fd2708f809fd
fc0a0e1103f9ed1a
e90807eff0fb0208
09ffec0bf8f70eba
e7080f0ffaf90413
0df20de410f2f6fe
faf9eb061deb47d9
ef1a2d1013070516
0b16071f0bf0f119
def5ecd9f7fcead2
d3dd2302dcffed1f
f402c34f1112f8c5
ded60711ecf21e02
061a021de7e7050b
19e8fbfe0009db00
f7fbc61ae2ff08bf
e2e40405d709feef
14dbf81915f6481b
defff4032520e6de
07e423dbfe12f5d4
0ceaeffd04f317e9
05e3fc03fc1725f4
fc1ef20cd610eaf4
00dbd0dddbf523d6
e227fee9e50d07fc
0edc04fef80ab9ee
2cc711fbecf901eb
07fe1f0c40ec1436
0af2e6eaf70f0dfa
ee13eef104eb3835
1c0df910e91de5f1
04101645e6f610b4
f506fc14f0f3f101
d4ee10f4e3e6d808
f72317fde01ef70d
18fbfbda01f6d913
0b1cf400130ef6fc
2901e92206e9380d
edde060c1ef512ed
18ed24eedff2fc49
f4e1200a05f4fd03
ec1ef520ecfc2921
0c191512c7e6efff
eb0d1527bb0422d1
162df822be18f612
19ee0b2603e7251e
f5290bf32c1c02fc
05df0e0bf300f92e
0513fef7ee02fb0a
1216f21f1004c5ff
f10d04fae40317f0
e90f2f2914161d1e
07e012f5eeed0b00
f3fd28e2e2e1cb1f
ff0f1cf8dd07130d
e30b2140f90de918
0e0fede4d901f200
e70ef5eae3ddd105
0bddf6ebd8f3f3f2
fedf123620e108d8
df1b0cd6ee160fef
071111fffef9402b
0b280be012fa01ef
ede918e7dbe3f2cb
21fe23dde60e0d0a
fedd17070e08ec06
34ff06e80914d6fa
f217ec0d3de2e2f0
f3b60afa02edffef
f3dcdc1508032d2d
f428f3e8ff0ef6f0
e403e0d906e1e04c
0217ecdc30f6f9f9
ed04e801e0e05818
ed39fc131b1ad31a
11fc1a1a16f2e93d
f0060ce2e909f1f2
370b1ee4e501d0df
05cf1c12280826ec
e7fa232f050f03b8
00cee53725040d11
35e9f90b18f8eafc
f91b12f9dd1218e6
ed1328cd0b1d21cc
e4e6e8110c002003
e4e2ef0ded132ee7
e6fffe0ee9f81105
fd1b0c02e2f322f7
0afdf9022fffeefd
f5f0f510f11adbe8
f8faf6eee501cdf3
e3010de7f3f5fbd9
d801f312fe07f402
f5f2fef0f0edd2ea
f6f40cf0e4f12715
f8fcff3cdefc1c3d
df03e818dcede8ff
0c14dff6dfe80f18
ff1021f21619fa14
eb1a06d245f20afb
ec1bee0607f802f4
1a0011e4f6e5f220
e5e105e417062c02
100933f4e3f20301
0228dd17eb0be20c
1d11f6171f04d8ed
0117e30c30f128e7
01e2cd2c060b1756
1a07fbeb060d110d
35fe09df18fddb12
d3041610f90313e5
010529eed2f105fc
12e7fe0ee511f30d
e304e2160ff6c001
e50524e326f328ea
f8df011ee0fad000
0019102911f3f006
f1e3e907001e2c18
d5eb04f30002f00d
041dbfd00af6090a
e5f7e900f5f5130e
f9e51d2204170c08
02fa1e0ae1fd04fe
0006f6d52616fc1b
d1f7efedc408fc0b
f4120e0c27001ce2
09e7e2f3ebf81b03
0618310a270d34fb
052001e7f60414f6
f5212a09ffe6cceb
09cb05fee0040607
e81ad443ebf4d90d
034107f6e1faf6ed
25f01d0a09e7e21a
15ec0c06d4f536df
fef74a2a0cfcecb8
f709011acafd14f6
ee0b1f0a10f900f2
fedef20ed8f5f11a
eb270ed7be0b1311
15d314f9fc0409fc
f9ff1ff3e711c2db
0fbb1210dfe91302
f21b2419ed04edda
e71cfee3e4f701f8
01100f2413e3dbef
fe0aeff925141bde
fef61730250ed913
dc141ae51b0ef904
ddf109fa09ecb4e2
101bf30ad00acff4
e2e1dc3fe6f0dd25
dd481607f4fff0fc
e812e8f3e711bf04
fd1efafb01f3090d
0c24e224ddef0c0a
051602e1f106f2ed
1a04f70dfaf21bfd
f3d209f1250ee3eb
e021cd1920072a10
15ee20241a0f04f6
fa0a0fe9ea07050b
2eeb19f2d9fe04eb
f6dfc0e51e09ed27
ddd4fd0c0bf7f1fa
fff71e16e7f1e8f6
ef2d19103420f6ee
020f45f42dfb1041
f2caed0c160eecfb
f0fd02d01cf025de
dfcce3f6e9f1db05
fa07d8e7c20e2cb4
1ef508f79e0dfff5
fc0d200af80fff0b
fe320408240614e0
0010eaf12bfee24f
02d6ed07fce6f805
09f604ebf6ef3e09
e0fae303f90a17e4
02e6eb4712f308ed
f916df13e812f301
1f060eefeb12fb07
ddf4ecf222e32e1e
e4e428201314ceb9
08e1f3ea090411ff
10eaf2d506f10f26
2deafaf8e1fefd1c
13f1fd00c4fe0ed7
e61223e014fd070a
d1f21fe4fbfd382e
23e0e7e01e101108
0dd72f1413070347
f0db0522e40ae503
0ddeee11050e121b
fc10f9fdeb1a2600
f1133a43f9edf124
fe0bec104408ede7
ffe5e00ce70a122f
f90212fd31161f0e
0c01f9eff6f1f91e
1919e61a27fdf106
e610ffe7e7ea071a
0b1711f51afff209
04e9ef01faed1622
0a020ad9df020906
16dfeb2301f1d6df
07dff4fc0de6f005
d70d3dd218eff4bc
09e30cf6e7e517fb
14e2202004143d0f
e1db0412ddfe03d8
0be8cd3d0a1f17d7
effc020ddaee090d
e7e5ea1625011fe1
f011e205d711e203
fa290d26e4070af0
15fde8e5daf2f200
f9fffb2e050235f2
04d9f9eaec12cfd5
0502b161e4f6e3e9
e1f22109f10f0f09
22e6fcef02f4e7fe
ed24f0e9090904e3
0102cbe11b06dfe3
e324eff7220510fd
130719160709fb04
f322fb05db2f0ae6
101ae2ee2804e2cf
fdcbf3e21ef3f4fe
281b1edf18fcc116
0c14f3fd03eeff0c
08f21b2bf70e02fa
d9e0dafdc5ff0801
faf80be5fd0a22fe
1ee2110a2122f807
fd14d8c521f8fd4d
1a0f07e4250ffc03
171b170c0e0bca18
e9e10203d5dcf612
f3ece22ae9f32ae3
d506f2eade14f516
29df1bf2f1fb2f0b
d6f724f5ecf924e0
0edd0834e7eef7a5
1b0dd3fb1103f210
e91606051d08fd1c
e7f5e908f5f100f2
f5e537f3eff41f1b
07f20130d4fbfffc
