edfc1fdbf81c19ff
ec23edfe1ff8f60e
e8249e0f13f40b0f
f4ec111fd8eeff02
17f321f10308101c
ddd5f514d2edeb0c
e9fa2d2e04fadee1
f4e208f7c4f9f507
17dfff16273135e1
f9fdf41b0b010ddc
f33705002c0023db
1ae90d0ce9f80b17
0f10f8d8091600e8
1614faff11e131fa
0a0ea418f71405e8
1f07fe1f23f0060a
2321e8041309e1cd
fdd9f3fcd9041415
eb0ff04af3fae7f2
08efe912ebea0ef9
1bf5f8f5f2eef7fb
e7ed1b08fe0c23f2
feed0c1ebdec110e
dbc4f11fdcfdf600
ef0102fb13112af7
1d19fd15301decf4
1405d5ca32eee805
e9d30eecfced07ff
0ee3fc02ff2049d7
f622f4032005fee1
020dbada160407f2
46c6e5eb02f9fb00
f6f409f80dfe3114
f60d12f5e11209fa
f20bd6e0c5fe0bb4
0b10efe0cf09f40f
160efb1ee6ed1e18
151df710cf0d11e9
07ff04370bfd0426
f3dfd7160d0ee8fb
1b0fd8fae4e1effa
05340f10f0f4d215
02fed70015f6db1a
dbe1fae61afe05e8
18f4ffdfea1137ea
fb3bfb0c0a0df806
070519dc32ebfa19
23f9e8131cfff612
29dd1521f8facce3
031ffcf3e4fb1f0a
fcd77f1be9eedead
00e3dc2c3ef1e7f6
d31df9ddeff1edce
f4f80c04e608cdf4
0d1ecdf8dc030dec
1d06ee022ffffefd
0ff5001305f0391e
ff240a0f15f6fbed
fb26080904ee2236
27d6ef25e9eb0819
ef16f0ebe403eee8
1700ffe6e605e412
f5f2bf39e003020e
23220a1215f9f8f9
f0181b290bf2ebe7
22e81cee2f1407ed
15f3f31602f6f9aa
0400f90efaf7edea
dafef2ed06e332fc
f7f7fa0cdffeeae0
22e2d031e707fb22
f82ae1fc07f40011
1112f3fc151c120e
f41ae7f72b2804fd
f51b0ed1e111ddc8
e2040aed32f50bf3
e90ad608060747f7
2b32e9e3161acfeb
01e8eab33f02ede5
01ecf6e630070cf6
11edf0ed02dd4a15
25dfe710fc0fd2fb
1df9dcf7330af1c6
f6f700e225fa0af6
e9ed0de813f0ecec
0aeefd09f4eede06
102890bc23180c0f
27e80e0d24ebf40d
26f21ae8e90b1321
09edde1b020e12f2
11f4b21e1107e708
29dcfb1828eb1216
ee1515050ef5c3ff
f3eb2011cbeb2906
0a17c72304f1060b
ffd609f10013f201
ffe3f4ccf51d0102
fd2addfae204e3de
1821b3dbeefe06d0
fb00e8e719f21af6
f5e802ec1e09140c
f7f2f317170be50b
eef1c91ee7f41025
fd0afe03ddeeff1d
f30201f7e5d84d19
15f1fd0eec25db06
eae6f60926fdfa1f
fdfbeae4fd0ffcfe
ec111e1aeb1d40f7
e9ee060d0be3230b
f930cbe6e80c1de7
28f3d8041bf80014
011c220309003be0
1ae5f7f520eb0400
0ee015f2d600e639
1a21f407f5f41014
18ee0624022bd615
f01ffd1a1de839f7
de1a1df20e072c47
00f1e3dbecf40811
d7fd17deed1ffff1
0af7e6f20d07e20e
0823af3ece0b1930
fe11f7ebdf05fc15
2c0129dafee525f2
1a22e10f1ad9d5ed
d5ea121eeaf3e5f3
130f01f6deff0cff
350208ed2afd39f2
f6d4e105021018fc
0913a7022b290d2b
2deaf8f001e625ff
e210270bf60af328
0cd6e3f0e50d09f7
fe04f4ccc5150915
f804f5e9cf02040e
dbf11dea0a1cdae7
faca0f15e2090cf8
f1122aeb290a1400
2220eff3feea1309
f8e61d19251feaf5
e827082603e9000a
faf9c3e9f0ff26da
ffc1f2e8f5ea0afc
f60911ddfefc13cf
f7e401f8df0116fb
eaf84213e4f908d0
f306161bef041415
f2e6faf90e13f32d
f9161f03f70e30fd
0b1153e1b2050abc
f7d01cfc28f9e60b
1e0bee20f2ed49f5
2233f8ea2e2408ec
f403152202f1de1f
e7f52bf416ec19ff
18f4e30b381b2cf2
e7e7fd08ebfa09df
e41714fcd00e18ff
121ce305fa071d0d
f9071e0319f1eb10
2d13130f06150c13
f420ceeff514fe2d
0412f507d80700f5
f711101a08f6e5eb
23210cf606eb0ffe
0e0ee101e40c26c4
d7030be9d4fbe80c
18fa1822ed002427
26f60dea040511ee
f8d914ca010efc0c
e6fd23071419eae8
1af1f62d0c1c1f0d
093cf809021be4fa
eef623142cfe23e4
0e18eaee1d0a0206
1df5fcf01204b70b
05f802f5f80b4aec
1aed3a22dbf3f6da
2145d2ff2ff1f1f9
d412f5d5ec0833d3
051f11ee1214220b
0df8d4dce2f81162
f5dde6f834fd02f3
12ff0ce41022ccdf
ebdce63201fa25ec
f12ef2c301254737
050c09e8d4e60a22
e900e5cdf9fa38d8
06d7051d2b0e0d05
0d29fcc0130f10e2
080f071aeb0b050f
260f200e0f00f4f1
18d50df9def011f0
1423f73927f2f719
caf9f301f512ec02
0f14f8150af433f4
ea02dff30af9f9df
25fb051cf0e4f101
00f1fc14f3fdfe05
f7efec2b050f1d0e
29051bec2c14e816
f303ef0c1bef1134
0c19fdf03910f900
10ecee02e8ed1b13
ee0ffefe2e13fcf4
15eaa716470c03ec
eae6ffe901f4e9fb
f4080524e9f9e2fa
25251918ec25cdee
0ee0971bdefaf63f
f01b0ff22917fe03
17f012d8030ef2f1
1426e0fde5fafaf1
f31dbdc90809031d
070fedfa05ee1c0f
e80018d4fb0af4f0
0308de1fde09e907
191f27d1fb14ecbb
eaef180a2801190f
160a0afc17f6d301
2bc3edefc617dd18
e7e6ef1df2e312fd
f0e9fdfb06eff507
1e06de2727002d14
fe0dfb0eff13ceee
e71acbd52710e9e6
14c21cede3fe1900
1bec1ade22f8f1e2
eaf2f10de203de00
042aeacbe6201c27
320cf4f6f9092309
f0f6f7eddee6f3f4
0931fcffe2040f1b
0ae0dc2c4ceafb0f
d6f70712260ae7e9
f8ec0af01439f114
01de0636fb10eb0c
f43ff6c5ca1f1045
03cee6ebdbfb0921
e90a101e200ef6f1
fae2f119f004fa0a
ecf8e9240eefe8ca
e9d9e4200ef1140a
11d81efd061ccee9
140a160f15e4f5e5
e7fc2b11e001f101
f2df0ce024eb0d14
f3e40917211c1df5
f908f400f3e1df16
023c10ce201a2d5b
13b5e3e525ef10fa
fb0907e615010fec
d9c2ec0a00d41204
f2f7d92ae511f821
0503ea0aba01f117
d4f20bee04edc623
fb19f211d0f4feff
04101fc828f9fef4
dd01e8c80bef1a13
16d904e7f6f3d401
fcd8e9fbedfc00f4
f9fc31e6b90ddeca
100feb0ecf05fb09
12fef6f8eff0d7ef
04f2e606e6edf6dd
e7d730fe0f0d16e0
102edd1bca0ff30c
f8ff2df62811ed00
1a1dd3f9cbf602ed
e5fc01d2cd1712d4
0916eafce7fb270d
38dc01d014110302
da27eaebeb1c0df4
f0280ad61f110aeb
04eb063411f60b09
2b0600f11debc8e9
ee02f4ebf40b0201
df2d2019f909f7cf
ebc5f7262bff0902
e810e91709e7112d
02121014001fdbff
141ab92934100b48
f01130f1f91016fb
05f326fa0bdad216
0dc4dff5d5e5eedc
e6084137fc10edcf
043de01dedeeed02
f90ef5f2e9e5db05
fef9ed06e421fffb
0200b1e0d102e9d5
dc1f1d2ae812eef5
18f814ebe1f32cec
fc00dcf2d70d22f7
ef2bfb1deef20638
01cf23f512fcedf9
060de63017f2cf18
f40be3fdea1f0afa
12f2c4241a0ef536
f8dd1be7e9feed0b
0adff51a1a0b2006
f70402092ef31efb
0728ec00f716f455
f1cc051111ea0df9
371e14d7f31bf6cb
f7e01ae9d9dc1718
f1fd5009e2f5dc14
08380c1d210ae808
f90c13f50d080dd4
010cdd0816ff1510
1507f7d0f1031dcc
eff6f4f626fa1f0f
1df7fbfb2a00d306
0223d62102e80b03
e90a3a261d1326d3
f2f4ef03dbef240d
e108f0f70a30f910
e3ef081f1306f00c
1112e203280e3ae6
1be2f10331111e0c
021cf8dfea061a07
15e4f5060efcf90e
14e2b8080205f5bc
d7ee0aef13f7df01
fbf421e1e7fd0a05
e7e5e105160203fc
0d0e0bff100cea2b
17e2fc144bea010d
edf4e5f4e411faf0
222ef8181d171ffd
16f91125f8121d2c
1904fd2dfef6e908
15f3f100ef1e2d33
0e0befe9e706de06
10fcd3e62d03efb3
11e514f927160ae7
f8ec1cdd0bdefd11
1227fcfc2b15d01f
fce9bcf109f9d640
ddf20701231504eb
f8de021c2b1be5ff
1301f12503ede7d5
faebc426bd1be8b8
f817e2e006e5f501
e5f30803170e0d19
f9f8d3090f06e204
fde7e1dbc701191d
fe0de9140fee04f9
eef7ec1401122600
0decefe91bea190d
0e0cd1f5e9f92bcb
18fef9f9e1050f08
ee14060808d3b6ec
e8f90bfa16f8ddd7
e4f60e051be1042f
ea22120a0bfafcf8
fce81002170ff9fd
0214e80e2104f4d0
0d0d0c0a1e0315e1
16ddebfaf9e8240d
2715070b1301d808
291b0ff01b1af500
0605090ee9ff10b8
e70301e1330cf7fd
dced081c0017ecf8
dac0f814f7fa0bed
081cd7dec726230b
2301e8ee2b0b1704
d3e405fcecf9bb24
fbdc0404ec01f606
f8060f1cf9f5f8fa
09d323f2e0051710
000933dbf90caff8
d5c1e3fde110260a
e2174cf5f9fef7e9
1b2ce4ebeb1109f6
0fdfe6051722090c
22f2e31df6ed0ee0
f023d0c5031d3d09
0b0f04f304e61e0b
31fbfad3011a04f3
e0cde004f70be0fe
e40f42fce7fa11d3
1dd91909b80b19fd
